{
  "version": "1.0",
  "truncation": null,
  "padding": null,
  "added_tokens": [
    {
      "id": 0,
      "content": "<s>",
      "single_word": false,
      "lstrip": false,
      "rstrip": false,
      "normalized": false,
      "special": true
    },
    {
      "id": 1,
      "content": "<pad>",
      "single_word": false,
      "lstrip": false,
      "rstrip": false,
      "normalized": false,
      "special": true
    },
    {
      "id": 2,
      "content": "</s>",
      "single_word": false,
      "lstrip": false,
      "rstrip": false,
      "normalized": false,
      "special": true
    },
    {
      "id": 3,
      "content": "<unk>",
      "single_word": false,
      "lstrip": false,
      "rstrip": false,
      "normalized": false,
      "special": true
    },
    {
      "id": 4,
      "content": "<mask>",
      "single_word": false,
      "lstrip": false,
      "rstrip": false,
      "normalized": false,
      "special": true
    }
  ],
  "normalizer": {
    "type": "NFKC"
  },
  "pre_tokenizer": {
    "type": "ByteLevel",
    "add_prefix_space": true,
    "trim_offsets": true,
    "use_regex": true
  },
  "post_processor": null,
  "decoder": {
    "type": "ByteLevel",
    "add_prefix_space": true,
    "trim_offsets": true,
    "use_regex": true
  },
  "model": {
    "type": "BPE",
    "dropout": null,
    "unk_token": null,
    "continuing_subword_prefix": null,
    "end_of_word_suffix": null,
    "fuse_unk": false,
    "byte_fallback": false,
    "ignore_merges": false,
    "vocab": {
      "<s>": 0,
      "<pad>": 1,
      "</s>": 2,
      "<unk>": 3,
      "<mask>": 4,
      "!": 5,
      "\"": 6,
      "#": 7,
      "$": 8,
      "%": 9,
      "&": 10,
      "'": 11,
      "(": 12,
      ")": 13,
      "*": 14,
      "+": 15,
      ",": 16,
      "-": 17,
      ".": 18,
      "/": 19,
      "0": 20,
      "1": 21,
      "2": 22,
      "3": 23,
      "4": 24,
      "5": 25,
      "7": 26,
      "8": 27,
      ":": 28,
      ";": 29,
      "<": 30,
      "=": 31,
      ">": 32,
      "?": 33,
      "@": 34,
      "A": 35,
      "B": 36,
      "C": 37,
      "D": 38,
      "E": 39,
      "F": 40,
      "G": 41,
      "H": 42,
      "I": 43,
      "J": 44,
      "K": 45,
      "L": 46,
      "M": 47,
      "N": 48,
      "O": 49,
      "P": 50,
      "Q": 51,
      "R": 52,
      "S": 53,
      "T": 54,
      "U": 55,
      "V": 56,
      "W": 57,
      "X": 58,
      "Y": 59,
      "Z": 60,
      "[": 61,
      "\\": 62,
      "]": 63,
      "^": 64,
      "_": 65,
      "`": 66,
      "a": 67,
      "b": 68,
      "c": 69,
      "d": 70,
      "e": 71,
      "f": 72,
      "g": 73,
      "h": 74,
      "i": 75,
      "j": 76,
      "k": 77,
      "l": 78,
      "m": 79,
      "n": 80,
      "o": 81,
      "p": 82,
      "q": 83,
      "r": 84,
      "s": 85,
      "t": 86,
      "u": 87,
      "v": 88,
      "w": 89,
      "x": 90,
      "y": 91,
      "z": 92,
      "|": 93,
      "}": 94,
      "~": 95,
      "¡": 96,
      "¢": 97,
      "£": 98,
      "¤": 99,
      "¥": 100,
      "¦": 101,
      "§": 102,
      "¨": 103,
      "©": 104,
      "ª": 105,
      "«": 106,
      "¬": 107,
      "®": 108,
      "¯": 109,
      "°": 110,
      "±": 111,
      "²": 112,
      "³": 113,
      "´": 114,
      "µ": 115,
      "¶": 116,
      "·": 117,
      "¸": 118,
      "¹": 119,
      "º": 120,
      "»": 121,
      "¼": 122,
      "½": 123,
      "¾": 124,
      "¿": 125,
      "Â": 126,
      "Ã": 127,
      "Ä": 128,
      "Å": 129,
      "Æ": 130,
      "Ç": 131,
      "È": 132,
      "É": 133,
      "Ê": 134,
      "Ë": 135,
      "Ì": 136,
      "Í": 137,
      "Î": 138,
      "Ï": 139,
      "Ð": 140,
      "Ñ": 141,
      "Ò": 142,
      "Ó": 143,
      "Ô": 144,
      "Õ": 145,
      "Ö": 146,
      "×": 147,
      "Ø": 148,
      "Ù": 149,
      "Ú": 150,
      "Û": 151,
      "Ü": 152,
      "ß": 153,
      "à": 154,
      "á": 155,
      "â": 156,
      "ã": 157,
      "ä": 158,
      "å": 159,
      "æ": 160,
      "ç": 161,
      "è": 162,
      "é": 163,
      "ê": 164,
      "ë": 165,
      "ì": 166,
      "í": 167,
      "î": 168,
      "ï": 169,
      "ð": 170,
      "ó": 171,
      "Ġ": 172,
      "Ģ": 173,
      "ģ": 174,
      "Ĥ": 175,
      "ĥ": 176,
      "Ħ": 177,
      "ħ": 178,
      "Ĩ": 179,
      "ĩ": 180,
      "Ī": 181,
      "ī": 182,
      "Ĭ": 183,
      "ĭ": 184,
      "Į": 185,
      "į": 186,
      "İ": 187,
      "ı": 188,
      "Ĳ": 189,
      "ĳ": 190,
      "Ĵ": 191,
      "ĵ": 192,
      "Ķ": 193,
      "ķ": 194,
      "ĸ": 195,
      "Ĺ": 196,
      "ĺ": 197,
      "Ļ": 198,
      "ļ": 199,
      "Ľ": 200,
      "ľ": 201,
      "Ŀ": 202,
      "ŀ": 203,
      "Ł": 204,
      "ł": 205,
      "Ń": 206,
      "Ġt": 207,
      "Ġa": 208,
      "in": 209,
      "he": 210,
      "re": 211,
      "on": 212,
      "Ġthe": 213,
      "er": 214,
      "Ġs": 215,
      "Ġw": 216,
      "Ġo": 217,
      "at": 218,
      "Ġc": 219,
      "nd": 220,
      "it": 221,
      "ou": 222,
      "or": 223,
      "es": 224,
      "is": 225,
      "Ġf": 226,
      "en": 227,
      "Ġp": 228,
      "Ġb": 229,
      "ing": 230,
      "an": 231,
      "ed": 232,
      "Ġto": 233,
      "al": 234,
      "Ġm": 235,
      "Ġand": 236,
      "00": 237,
      "ar": 238,
      "Ġin": 239,
      "Ġof": 240,
      "Ġd": 241,
      "ic": 242,
      "le": 243,
      "om": 244,
      "ion": 245,
      "Ġh": 246,
      "as": 247,
      "Ġth": 248,
      "ll": 249,
      "Ġy": 250,
      "ent": 251,
      "Ġl": 252,
      "ve": 253,
      "ro": 254,
      "Ġe": 255,
      "ĠT": 256,
      "Ġre": 257,
      "ĠI": 258,
      "st": 259,
      "Ġn": 260,
      "Ġyou": 261,
      "ct": 262,
      "Ġg": 263,
      "ly": 264,
      "et": 265,
      "Ġis": 266,
      "ĠS": 267,
      "Ġfor": 268,
      "Ġbe": 269,
      "ut": 270,
      "ĠA": 271,
      "ot": 272,
      "Ġon": 273,
      "id": 274,
      "ur": 275,
      "ow": 276,
      "ĠC": 277,
      "ay": 278,
      "us": 279,
      "Ġ00": 280,
      "ce": 281,
      "im": 282,
      "ig": 283,
      "ch": 284,
      "ra": 285,
      "ith": 286,
      "ver": 287,
      "ation": 288,
      "il": 289,
      "Ġthat": 290,
      "Ġst": 291,
      "ol": 292,
      "Ġwith": 293,
      "ad": 294,
      "am": 295,
      "ĠM": 296,
      "ir": 297,
      "Ġit": 298,
      "ĠThe": 299,
      "se": 300,
      "Ġwe": 301,
      "ĠW": 302,
      "Ġan": 303,
      "Ġpro": 304,
      "ĠP": 305,
      "ill": 306,
      "ĠB": 307,
      "Ġas": 308,
      "ers": 309,
      "Ġare": 310,
      "Ġhe": 311,
      "Ġwh": 312,
      "if": 313,
      "un": 314,
      "ge": 315,
      "ke": 316,
      "Ġha": 317,
      "ter": 318,
      "Ġcon": 319,
      "Ġor": 320,
      "'s": 321,
      "ul": 322,
      "ess": 323,
      "Ġcom": 324,
      "oo": 325,
      "ĠH": 326,
      "ate": 327,
      "pp": 328,
      "her": 329,
      "ĠD": 330,
      "ment": 331,
      "ĠF": 332,
      "ld": 333,
      "est": 334,
      "Ġyour": 335,
      "ab": 336,
      "Ġde": 337,
      "Ġat": 338,
      "Ġse": 339,
      "Ġmo": 340,
      "Ġex": 341,
      "ri": 342,
      "ck": 343,
      "Ġ0": 344,
      "rom": 345,
      "Ġne": 346,
      "pe": 347,
      "igh": 348,
      "qu": 349,
      "ĠR": 350,
      "ure": 351,
      "ist": 352,
      "ort": 353,
      "Ġv": 354,
      "ity": 355,
      "ant": 356,
      "ĠL": 357,
      "Ġhave": 358,
      "ive": 359,
      "Ġcan": 360,
      "art": 361,
      "ĠG": 362,
      "um": 363,
      "ĠE": 364,
      "Ġwas": 365,
      "ust": 366,
      "Ġus": 367,
      "Ġ(": 368,
      "Ġfrom": 369,
      "op": 370,
      "Ġthis": 371,
      "ain": 372,
      "em": 373,
      "ĠN": 374,
      "Ġal": 375,
      "Ġr": 376,
      "th": 377,
      "Ġsh": 378,
      "ies": 379,
      "ĠO": 380,
      "Ġch": 381,
      "os": 382,
      "Ġwill": 383,
      "Ġby": 384,
      "Ġnot": 385,
      "Ġsu": 386,
      "el": 387,
      "nt": 388,
      "and": 389,
      "Ġu": 390,
      "res": 391,
      "ome": 392,
      "ight": 393,
      "all": 394,
      "Ġ0000": 395,
      "Ġle": 396,
      "ard": 397,
      "ud": 398,
      "out": 399,
      "iv": 400,
      "Ġdo": 401,
      "ial": 402,
      "Ġwor": 403,
      "Ġab": 404,
      "ould": 405,
      "ie": 406,
      "our": 407,
      "Ġall": 408,
      "red": 409,
      "Ġ\"": 410,
      "ide": 411,
      "te": 412,
      "Ġpl": 413,
      "per": 414,
      "rou": 415,
      "ĠTh": 416,
      "gh": 417,
      "ine": 418,
      "Ġso": 419,
      "Ġcomp": 420,
      "age": 421,
      "Ġma": 422,
      "fe": 423,
      "ice": 424,
      "ast": 425,
      "Ġj": 426,
      "Ġk": 427,
      "pt": 428,
      "Ġad": 429,
      "ally": 430,
      "ear": 431,
      "Ġhas": 432,
      "ction": 433,
      "lo": 434,
      "ĠJ": 435,
      "Ġwhe": 436,
      "Ġ-": 437,
      "king": 438,
      "able": 439,
      "ag": 440,
      "ĠIn": 441,
      "ac": 442,
      "Ġme": 443,
      "ther": 444,
      "Ġen": 445,
      "so": 446,
      "ich": 447,
      "Ġbut": 448,
      "ip": 449,
      "ind": 450,
      "od": 451,
      "are": 452,
      "Ġout": 453,
      "Ġour": 454,
      "ĠU": 455,
      "Ġup": 456,
      "very": 457,
      "ack": 458,
      "ite": 459,
      "Ġlo": 460,
      "one": 461,
      "ated": 462,
      "cc": 463,
      "ry": 464,
      "Ġtheir": 465,
      "Ġmore": 466,
      "ime": 467,
      "du": 468,
      "ĠY": 469,
      "Ġte": 470,
      "Ġim": 471,
      "ood": 472,
      "'t": 473,
      "iz": 474,
      "for": 475,
      "Ġthey": 476,
      "ong": 477,
      "Ġmy": 478,
      "ore": 479,
      "ous": 480,
      "Ġone": 481,
      "Ġcont": 482,
      "ks": 483,
      "ans": 484,
      "ance": 485,
      "ib": 486,
      "ost": 487,
      "ions": 488,
      "Ġcl": 489,
      "ike": 490,
      "Ġinc": 491,
      "ign": 492,
      "Ġman": 493,
      "Ġun": 494,
      "Ġapp": 495,
      "Ġfe": 496,
      "Ġres": 497,
      "ru": 498,
      "Ġwhich": 499,
      "act": 500,
      "Ġabout": 501,
      "ĠIt": 502,
      "ĠWe": 503,
      "Ġqu": 504,
      "reat": 505,
      "ire": 506,
      "ult": 507,
      "ase": 508,
      "ail": 509,
      "og": 510,
      "ations": 511,
      "Ġper": 512,
      "ace": 513,
      "ia": 514,
      "erv": 515,
      "Ġany": 516,
      "Ġalso": 517,
      "ĠK": 518,
      "ree": 519,
      "Ġwho": 520,
      "Ġtime": 521,
      "Ġoff": 522,
      "Ġother": 523,
      "ĠThis": 524,
      "ach": 525,
      "Ġgo": 526,
      "form": 527,
      "to": 528,
      "ne": 529,
      "ap": 530,
      "ame": 531,
      "ber": 532,
      "ass": 533,
      "..": 534,
      "Ġ000": 535,
      "vel": 536,
      "ical": 537,
      "ile": 538,
      "Ġsp": 539,
      "ary": 540,
      "Ġdis": 541,
      "ven": 542,
      "ep": 543,
      "Ġget": 544,
      "ays": 545,
      "Ġyear": 546,
      "ĠV": 547,
      "ence": 548,
      "Ġpart": 549,
      "Ġsome": 550,
      "Ġlike": 551,
      "000": 552,
      "ue": 553,
      "ook": 554,
      "ount": 555,
      "Ġsa": 556,
      "ĠSt": 557,
      "ff": 558,
      "Ġnew": 559,
      "Ġta": 560,
      "ents": 561,
      "own": 562,
      "Ġthem": 563,
      "ition": 564,
      "ub": 565,
      "Ġneed": 566,
      "pl": 567,
      "Ġtra": 568,
      "ĠCh": 569,
      "ings": 570,
      "ress": 571,
      "ors": 572,
      "ick": 573,
      "Ġspe": 574,
      "Ġar": 575,
      "ond": 576,
      "Ġhis": 577,
      "Ġover": 578,
      "cial": 579,
      "Ġif": 580,
      "Ġrec": 581,
      "ark": 582,
      "Ġwhen": 583,
      "Ġthere": 584,
      "Ġbeen": 585,
      "Ġro": 586,
      "Ġimp": 587,
      "Ġsc": 588,
      "Ġco": 589,
      "ild": 590,
      "Ġpe": 591,
      "Ġag": 592,
      "Ġpre": 593,
      "ens": 594,
      "Ġwork": 595,
      "av": 596,
      "Ġkn": 597,
      "Ġwhat": 598,
      "Ġthan": 599,
      "Ġdes": 600,
      "Ġwould": 601,
      "ough": 602,
      "Ġacc": 603,
      "ren": 604,
      "wn": 605,
      "ish": 606,
      "Ġam": 607,
      "Ġhow": 608,
      "nder": 609,
      "ater": 610,
      "Ġwere": 611,
      "int": 612,
      "ord": 613,
      "Ġjust": 614,
      "lp": 615,
      "rough": 616,
      "Ġhad": 617,
      "ound": 618,
      "Ġprov": 619,
      "Ġcomm": 620,
      "ĠHe": 621,
      "Ġbec": 622,
      "Ġinto": 623,
      "ĠYou": 624,
      "vers": 625,
      "lud": 626,
      "use": 627,
      "ak": 628,
      "Ġhelp": 629,
      "lic": 630,
      "Ġbu": 631,
      "Ġmake": 632,
      "Ġmay": 633,
      "irst": 634,
      "Ġserv": 635,
      "ople": 636,
      "ang": 637,
      "Ġits": 638,
      "Ġno": 639,
      "old": 640,
      "ning": 641,
      "Ġadd": 642,
      "ory": 643,
      "Ġuse": 644,
      "Ġpr": 645,
      "fter": 646,
      "ces": 647,
      "ĠIf": 648,
      "rent": 649,
      "ments": 650,
      "ual": 651,
      "ram": 652,
      "Ġem": 653,
      "Ġher": 654,
      "Ġprodu": 655,
      "ĠWh": 656,
      "Ġmost": 657,
      "Ġind": 658,
      ").": 659,
      "Ġtr": 660,
      "Ġpeople": 661,
      "ose": 662,
      "itt": 663,
      "Ġtw": 664,
      "ices": 665,
      "ft": 666,
      "Ġwell": 667,
      "Ġinclud": 668,
      "ious": 669,
      "Ġknow": 670,
      "ect": 671,
      "oc": 672,
      "tern": 673,
      "Ġonly": 674,
      "Ġthrough": 675,
      "les": 676,
      "ily": 677,
      "ons": 678,
      "we": 679,
      "ates": 680,
      "hed": 681,
      "ink": 682,
      "ull": 683,
      "Ġevery": 684,
      "Ġph": 685,
      "round": 686,
      "end": 687,
      "Ġfirst": 688,
      "Ġbet": 689,
      "0000": 690,
      "ian": 691,
      "Ġcons": 692,
      "ating": 693,
      "fect": 694,
      "ise": 695,
      "Ġthese": 696,
      "ause": 697,
      "Ġunder": 698,
      "Ġwant": 699,
      "ities": 700,
      "Ġsupp": 701,
      "Ġdif": 702,
      "bs": 703,
      "ific": 704,
      "ject": 705,
      "Ġvery": 706,
      "Ġexper": 707,
      "ĠAs": 708,
      "Ġpo": 709,
      "Ġsee": 710,
      "ade": 711,
      "mer": 712,
      "lect": 713,
      "Ġrep": 714,
      "Ġact": 715,
      "hen": 716,
      "Ġback": 717,
      "Ġcol": 718,
      "li": 719,
      "amp": 720,
      "iness": 721,
      "Ġreg": 722,
      "Ġsy": 723,
      "cess": 724,
      "xt": 725,
      "ict": 726,
      "ĠRe": 727,
      "ange": 728,
      "ert": 729,
      "oth": 730,
      "ful": 731,
      "ph": 732,
      "iew": 733,
      "Ġra": 734,
      "Ġmany": 735,
      "ced": 736,
      "Ġbus": 737,
      "Ġgood": 738,
      "uch": 739,
      "Ġstud": 740,
      "Ġke": 741,
      "any": 742,
      "Ġinv": 743,
      "ures": 744,
      "fore": 745,
      "Ġtwo": 746,
      "ible": 747,
      "day": 748,
      "Ġfl": 749,
      "urn": 750,
      "Ġgreat": 751,
      "iss": 752,
      "row": 753,
      "sel": 754,
      "Ġdec": 755,
      "Ġway": 756,
      "ife": 757,
      "ility": 758,
      "Ġsm": 759,
      "als": 760,
      "ting": 761,
      "Ġshe": 762,
      "Ġyears": 763,
      "Ġcould": 764,
      "Ġinform": 765,
      "Ġshould": 766,
      "ract": 767,
      "erson": 768,
      "Ġwhere": 769,
      "Ġpos": 770,
      "ving": 771,
      "Ġafter": 772,
      "Ġev": 773,
      "ower": 774,
      "eth": 775,
      "Ġent": 776,
      "Ġrem": 777,
      "Ġeven": 778,
      "Ġac": 779,
      "ys": 780,
      "Ġbest": 781,
      "Ġthen": 782,
      "ased": 783,
      "ĠFor": 784,
      "Ġown": 785,
      "olog": 786,
      "pect": 787,
      "get": 788,
      "ience": 789,
      "ool": 790,
      "ved": 791,
      "Ġfind": 792,
      "ular": 793,
      "Ġinst": 794,
      "ational": 795,
      "stem": 796,
      "erm": 797,
      "ble": 798,
      "oll": 799,
      "ts": 800,
      "Ġstart": 801,
      "Ġhigh": 802,
      "Ġset": 803,
      "Ġcar": 804,
      "velop": 805,
      "aw": 806,
      "ew": 807,
      "Ġnow": 808,
      "Ġhome": 809,
      "Ġins": 810,
      "ĠAn": 811,
      "Ġrel": 812,
      "Ġrequ": 813,
      "Ġloc": 814,
      "ath": 815,
      "Ġsuch": 816,
      "uring": 817,
      "ont": 818,
      "Ġdesign": 819,
      "Ġsec": 820,
      "ward": 821,
      "Ġright": 822,
      "Ġfin": 823,
      "ĠUn": 824,
      "Ġdown": 825,
      "rit": 826,
      "Ġmuch": 827,
      "der": 828,
      "ative": 829,
      "ics": 830,
      "hes": 831,
      "ĠSe": 832,
      "Ġbusiness": 833,
      "line": 834,
      "Ġdiffe": 835,
      "air": 836,
      "ĠCom": 837,
      "Ġgu": 838,
      "Ġplay": 839,
      "Ġav": 840,
      "Ġatt": 841,
      "Ġdon": 842,
      "Ġinformation": 843,
      "hip": 844,
      "its": 845,
      "ĠAnd": 846,
      "Ġsaid": 847,
      "Ġday": 848,
      "ener": 849,
      "ty": 850,
      "Ġinte": 851,
      "Ġread": 852,
      "Ġtake": 853,
      "gan": 854,
      "arch": 855,
      "ient": 856,
      "Ġbl": 857,
      "Ġexp": 858,
      "alth": 859,
      "oy": 860,
      "ĠPro": 861,
      "),": 862,
      "Ġmin": 863,
      "Ġbecause": 864,
      "ident": 865,
      "Ġused": 866,
      "com": 867,
      "Ġlong": 868,
      "'re": 869,
      "Ġtoo": 870,
      "Ġperson": 871,
      "up": 872,
      "ited": 873,
      "Ġfam": 874,
      "Ġche": 875,
      "Ġproduct": 876,
      "arket": 877,
      "chn": 878,
      "Ġmon": 879,
      "Ġdisc": 880,
      "io": 881,
      "Ġdevelop": 882,
      "ality": 883,
      "Ġcre": 884,
      "ĠDe": 885,
      "und": 886,
      "ob": 887,
      "Ġsim": 888,
      "ustom": 889,
      "ied": 890,
      "Ġbel": 891,
      "Ġsystem": 892,
      "Ġprovid": 893,
      "Ġbr": 894,
      "Ġhere": 895,
      "Ġmade": 896,
      "Ġtrans": 897,
      "Ġsur": 898,
      "Ġvis": 899,
      "cy": 900,
      "Ġprog": 901,
      "ove": 902,
      "Ġdoes": 903,
      "Ġass": 904,
      "other": 905,
      "Ġpres": 906,
      "Ġbefore": 907,
      "ĠThere": 908,
      "Ġ&": 909,
      "rib": 910,
      "Ġdid": 911,
      "chool": 912,
      "Ġthose": 913,
      "Ġshow": 914,
      "ĠAl": 915,
      "Ġbeing": 916,
      "ash": 917,
      "Ġ$": 918,
      "Ġcall": 919,
      "ually": 920,
      "Ġnum": 921,
      "ner": 922,
      "Ġend": 923,
      "Ġform": 924,
      "ĠSo": 925,
      "Ġcomple": 926,
      "Ġeas": 927,
      "Ġworld": 928,
      "Ġhand": 929,
      "Ġeach": 930,
      "ffect": 931,
      "Ġwee": 932,
      "Ġdet": 933,
      "ĠBe": 934,
      "rest": 935,
      "Ġcur": 936,
      "Ġlife": 937,
      "Ġart": 938,
      "Ġsub": 939,
      "ix": 940,
      "ric": 941,
      "Ġmed": 942,
      "ake": 943,
      "Ġinter": 944,
      "Ġmem": 945,
      "Ġbo": 946,
      "Ġagain": 947,
      "ork": 948,
      "ata": 949,
      "Ġsupport": 950,
      "ues": 951,
      "Ġdifferent": 952,
      "ages": 953,
      "Ġlook": 954,
      "arm": 955,
      "Ġsk": 956,
      "Ġcustom": 957,
      "arn": 958,
      "Ġop": 959,
      "ize": 960,
      "ĠBut": 961,
      "âĢ": 962,
      "ci": 963,
      "ional": 964,
      "ĠHow": 965,
      "ouse": 966,
      "Ġadv": 967,
      "ank": 968,
      "led": 969,
      "ros": 970,
      "ives": 971,
      "ince": 972,
      "way": 973,
      "cept": 974,
      "ines": 975,
      "kes": 976,
      "ĠSh": 977,
      "Ġwhile": 978,
      "de": 979,
      "gg": 980,
      "Ġaround": 981,
      "Ġpost": 982,
      "ple": 983,
      "olut": 984,
      "Ġprocess": 985,
      "az": 986,
      "'ve": 987,
      "ng": 988,
      "Ġmarket": 989,
      "Ġstr": 990,
      "Ġcare": 991,
      "Ġgra": 992,
      "Ġaut": 993,
      "Ġcle": 994,
      "ather": 995,
      "Ġavail": 996,
      "Ġprof": 997,
      "ason": 998,
      "ves": 999,
      "land": 1000,
      "Ġed": 1001,
      "ctions": 1002,
      "ale": 1003,
      "Ġlast": 1004,
      "lease": 1005,
      "Ġreally": 1006,
      "ollow": 1007,
      "Ġloo": 1008,
      "...": 1009,
      "self": 1010,
      "Ġfree": 1011,
      "atch": 1012,
      "ave": 1013,
      "ins": 1014,
      "Ġret": 1015,
      "Ġser": 1016,
      "ell": 1017,
      "Ġcommun": 1018,
      "Ġlead": 1019,
      "Ġtechn": 1020,
      "Ġlove": 1021,
      "Ġteam": 1022,
      "Ġcour": 1023,
      "Ġsign": 1024,
      "Ġprogram": 1025,
      "Ġpur": 1026,
      "read": 1027,
      "Ġchild": 1028,
      "Ġlist": 1029,
      "pr": 1030,
      "ness": 1031,
      "Ġplace": 1032,
      "ways": 1033,
      "Ġimport": 1034,
      "ĠThey": 1035,
      "Ġfun": 1036,
      "Ġhim": 1037,
      "Ġ.": 1038,
      "Ġext": 1039,
      "ĠAr": 1040,
      "Ġval": 1041,
      "ween": 1042,
      "imes": 1043,
      "ĠOn": 1044,
      "irect": 1045,
      "Ġsom": 1046,
      "ene": 1047,
      "Ġfull": 1048,
      "Ġcount": 1049,
      "Ġusing": 1050,
      "ever": 1051,
      "'ll": 1052,
      "Ġtop": 1053,
      "Ġpub": 1054,
      "Ġsame": 1055,
      "roup": 1056,
      "Ġthink": 1057,
      "ten": 1058,
      "Ġboth": 1059,
      "Ġvar": 1060,
      "Ġlar": 1061,
      "ĠCl": 1062,
      "Ġavailable": 1063,
      "ivers": 1064,
      "Ġstill": 1065,
      "ized": 1066,
      "oun": 1067,
      "Ġfeel": 1068,
      "riend": 1069,
      "'m": 1070,
      "ining": 1071,
      "Ġplan": 1072,
      "ĠNew": 1073,
      "Ġopt": 1074,
      "ature": 1075,
      "Ġservice": 1076,
      "Ġcompany": 1077,
      "Ġbetween": 1078,
      "Ġgener": 1079,
      "ets": 1080,
      "Ġty": 1081,
      "Ġchar": 1082,
      ".\"": 1083,
      "Ġproject": 1084,
      "ĠAd": 1085,
      "Ġpol": 1086,
      "view": 1087,
      "Ġlot": 1088,
      "ired": 1089,
      "ology": 1090,
      "Ġappro": 1091,
      "Ġgoing": 1092,
      "Ġide": 1093,
      "Ġfound": 1094,
      "ov": 1095,
      "Ġcor": 1096,
      "Ġthough": 1097,
      "ety": 1098,
      "iqu": 1099,
      "Ġbuild": 1100,
      "Ġhealth": 1101,
      "Ġfew": 1102,
      "Ġmain": 1103,
      ",\"": 1104,
      "Ġfollow": 1105,
      "ĠWhat": 1106,
      "uc": 1107,
      "Ġref": 1108,
      "Ġsmall": 1109,
      "ants": 1110,
      "Ġrun": 1111,
      "Ġexperience": 1112,
      "Ġkeep": 1113,
      "less": 1114,
      "ars": 1115,
      "ittle": 1116,
      "ĠWhen": 1117,
      "Ġsl": 1118,
      "Ġposs": 1119,
      "Ġallow": 1120,
      "Ġoffer": 1121,
      "Ġdata": 1122,
      "Ġwater": 1123,
      "be": 1124,
      "Ġpoint": 1125,
      "Ġresult": 1126,
      "Ġpartic": 1127,
      "iving": 1128,
      "ĠAll": 1129,
      "ĠTo": 1130,
      "Ġmonth": 1131,
      "Ġorgan": 1132,
      "Ġhapp": 1133,
      "ĠLe": 1134,
      "Ġpat": 1135,
      "Ġreal": 1136,
      "ross": 1137,
      "Ġcost": 1138,
      "Ġprovide": 1139,
      "stand": 1140,
      "Ġob": 1141,
      "Ġcent": 1142,
      "bers": 1143,
      "Ġpri": 1144,
      "ware": 1145,
      "Ġalways": 1146,
      "plo": 1147,
      "ah": 1148,
      "Ġservices": 1149,
      "Ġopen": 1150,
      "ms": 1151,
      "Ġsure": 1152,
      "Ġinterest": 1153,
      "Ġpay": 1154,
      "Ġincluding": 1155,
      "Ġmust": 1156,
      "Ġfamily": 1157,
      "ital": 1158,
      "Ġwithout": 1159,
      "Ġduring": 1160,
      "Ġnumber": 1161,
      "ĠâĢ": 1162,
      "ural": 1163,
      "Ġthings": 1164,
      "Ġiss": 1165,
      "ug": 1166,
      "Ġrest": 1167,
      "aut": 1168,
      "erg": 1169,
      "ically": 1170,
      "Ġbetter": 1171,
      "ĠQ": 1172,
      "thing": 1173,
      "orth": 1174,
      "Ġint": 1175,
      "Ġimportant": 1176,
      "Ġschool": 1177,
      "ĠEx": 1178,
      "Ġresp": 1179,
      "Ġcome": 1180,
      "Ġperform": 1181,
      "Ġthree": 1182,
      "ton": 1183,
      "ined": 1184,
      "Ġstand": 1185,
      "Ġfil": 1186,
      "Ġproper": 1187,
      "co": 1188,
      "Ġdri": 1189,
      "ield": 1190,
      "Ġeffect": 1191,
      "Ġlittle": 1192,
      "ody": 1193,
      "ĠWith": 1194,
      "Ġfact": 1195,
      "ĠTe": 1196,
      "Ġmod": 1197,
      "ists": 1198,
      "Ġclass": 1199,
      "ĠAt": 1200,
      "ĠPl": 1201,
      "Ġspec": 1202,
      "Ġpass": 1203,
      "Ġrece": 1204,
      "Ġve": 1205,
      "ute": 1206,
      "Ġconf": 1207,
      "arly": 1208,
      "Ġconc": 1209,
      "con": 1210,
      "Ġable": 1211,
      "Ġdef": 1212,
      "els": 1213,
      "Ġwebs": 1214,
      "ery": 1215,
      "Ġonline": 1216,
      "Ġquest": 1217,
      "ĠOur": 1218,
      "ething": 1219,
      "alk": 1220,
      "Ġfriend": 1221,
      "Ġlevel": 1222,
      "ished": 1223,
      "ling": 1224,
      "man": 1225,
      "Ġcontin": 1226,
      "Ġsay": 1227,
      "meric": 1228,
      "ared": 1229,
      "Ġtry": 1230,
      "Ġdist": 1231,
      "ploy": 1232,
      "Ġproble": 1233,
      "ention": 1234,
      "Ġarea": 1235,
      "Ġdi": 1236,
      "Ġspecial": 1237,
      "Ġlight": 1238,
      "Ġnext": 1239,
      "Ġincre": 1240,
      "Ġbra": 1241,
      "Ġaccess": 1242,
      "Ġgive": 1243,
      "ier": 1244,
      "ĠInd": 1245,
      "uss": 1246,
      "ately": 1247,
      "ients": 1248,
      "ĠShe": 1249,
      "Ġgroup": 1250,
      "ruct": 1251,
      "ccess": 1252,
      "orts": 1253,
      "reen": 1254,
      "Ġstate": 1255,
      "ock": 1256,
      "oney": 1257,
      "Ġwithin": 1258,
      "Ġcert": 1259,
      "Ġsince": 1260,
      "Ġmight": 1261,
      "Ġput": 1262,
      "Ġquality": 1263,
      "Ġsomething": 1264,
      "Ġtri": 1265,
      "Ġorder": 1266,
      "ĠIs": 1267,
      "vern": 1268,
      "Ġbook": 1269,
      "Ġinf": 1270,
      "me": 1271,
      "Ġopp": 1272,
      "ider": 1273,
      "dition": 1274,
      "Ġeng": 1275,
      "ien": 1276,
      "rence": 1277,
      "Ġanother": 1278,
      "Ġcurrent": 1279,
      "load": 1280,
      "au": 1281,
      "Ġblo": 1282,
      "Ġbig": 1283,
      "Ġi": 1284,
      "ĠAmeric": 1285,
      "att": 1286,
      "ral": 1287,
      "Ġwr": 1288,
      "ump": 1289,
      "Ġlet": 1290,
      "Ġrese": 1291,
      "Ġoper": 1292,
      "ames": 1293,
      "Ġpower": 1294,
      "Ġphot": 1295,
      "orn": 1296,
      "Ġmus": 1297,
      "Ġhard": 1298,
      "Ġgrow": 1299,
      "ential": 1300,
      "Ġdirect": 1301,
      "Ġold": 1302,
      "pend": 1303,
      "Ġinvest": 1304,
      "ior": 1305,
      "Ġsecond": 1306,
      "Ġest": 1307,
      "Ġcontro": 1308,
      "Ġprofess": 1309,
      "eng": 1310,
      "rist": 1311,
      "Ġ'": 1312,
      "Ġsite": 1313,
      "Ġequ": 1314,
      "ortun": 1315,
      "ration": 1316,
      "Ġless": 1317,
      "Ġaddition": 1318,
      "Ġapplic": 1319,
      "Ġroom": 1320,
      "Ġbuy": 1321,
      "Ġdays": 1322,
      "Ġhead": 1323,
      "ivid": 1324,
      "ffic": 1325,
      "ours": 1326,
      "iversity": 1327,
      "Ġcr": 1328,
      "Ġworking": 1329,
      "Ġpract": 1330,
      "Ġweek": 1331,
      "ĠSp": 1332,
      "here": 1333,
      "Ġtest": 1334,
      "ision": 1335,
      "Ġvisit": 1336,
      "Ġproducts": 1337,
      "Ġprote": 1338,
      "ards": 1339,
      "ĠThat": 1340,
      "oot": 1341,
      "Ġsit": 1342,
      "joy": 1343,
      "ĠSc": 1344,
      "Ġnever": 1345,
      "ĠCon": 1346,
      "ense": 1347,
      "Ġbro": 1348,
      "Ġmeet": 1349,
      "ified": 1350,
      "Ġgl": 1351,
      "ium": 1352,
      "ted": 1353,
      "ĠZ": 1354,
      "ateg": 1355,
      "Ġview": 1356,
      "tain": 1357,
      "Ġlooking": 1358,
      "ases": 1359,
      "oss": 1360,
      "Ġwebsite": 1361,
      "Ġfac": 1362,
      "Ġjo": 1363,
      "Ġsal": 1364,
      "Ġintern": 1365,
      "Ġtoday": 1366,
      "ĠPh": 1367,
      "gin": 1368,
      "Ġgot": 1369,
      "ote": 1370,
      "ently": 1371,
      "Ġel": 1372,
      "ator": 1373,
      "ĠMy": 1374,
      "Ġprom": 1375,
      "Ġfood": 1376,
      "Ġstudents": 1377,
      "Ġunderstand": 1378,
      "Ġlocal": 1379,
      "por": 1380,
      "Ġbre": 1381,
      "cing": 1382,
      "Ġmaking": 1383,
      "ĠCan": 1384,
      "Ġgr": 1385,
      "agement": 1386,
      "Ġgame": 1387,
      "Ġindust": 1388,
      "!!": 1389,
      "room": 1390,
      "ems": 1391,
      "Ġlarge": 1392,
      "Ġprev": 1393,
      "Ġneeds": 1394,
      "Ġpublic": 1395,
      "iron": 1396,
      "Ġwin": 1397,
      "Ġpop": 1398,
      "aterial": 1399,
      "Ġair": 1400,
      "Ġpresent": 1401,
      "ĠRes": 1402,
      "Ġmet": 1403,
      "omm": 1404,
      "ĠThese": 1405,
      "ieve": 1406,
      "ability": 1407,
      "ills": 1408,
      "Ġcap": 1409,
      "ĠâĢĺ": 1410,
      "Ġcheck": 1411,
      "ps": 1412,
      "orm": 1413,
      "Ġchange": 1414,
      "Ġcomplete": 1415,
      "ER": 1416,
      "pping": 1417,
      "Ġunt": 1418,
      "ample": 1419,
      "ax": 1420,
      "Ġevent": 1421,
      "inal": 1422,
      "Ġeasy": 1423,
      "Ġimpro": 1424,
      "Ġchang": 1425,
      "lection": 1426,
      "Ġdev": 1427,
      "ron": 1428,
      "Ġchildren": 1429,
      "ission": 1430,
      "aster": 1431,
      "Ġmoney": 1432,
      "Ġca": 1433,
      "Ġtru": 1434,
      "Ġconst": 1435,
      "illion": 1436,
      "Ġann": 1437,
      "ats": 1438,
      "ĠDo": 1439,
      "Ġsuccess": 1440,
      "ised": 1441,
      "ird": 1442,
      "ĠOr": 1443,
      "Ġconne": 1444,
      "atter": 1445,
      "ify": 1446,
      "Ġcreat": 1447,
      "Ġcourse": 1448,
      "ope": 1449,
      "Ġterm": 1450,
      "Ġlearn": 1451,
      "ĠFr": 1452,
      "ode": 1453,
      "ids": 1454,
      "pos": 1455,
      "ism": 1456,
      "ĠCol": 1457,
      "ĠMan": 1458,
      "Ġactiv": 1459,
      "cent": 1460,
      "ique": 1461,
      "cl": 1462,
      "ĠJo": 1463,
      "Ġfr": 1464,
      "Ġcase": 1465,
      "ĠBl": 1466,
      "Ġlaw": 1467,
      "itions": 1468,
      "work": 1469,
      "Ġalong": 1470,
      "tend": 1471,
      "ĠUS": 1472,
      "Ġemploy": 1473,
      ".,": 1474,
      "Ġhouse": 1475,
      "ains": 1476,
      "Ġenjoy": 1477,
      "Ġbas": 1478,
      "Ġname": 1479,
      "ably": 1480,
      "ĠNo": 1481,
      "Ġaway": 1482,
      "outh": 1483,
      "Ġtoget": 1484,
      "utes": 1485,
      "Ġtogether": 1486,
      "ret": 1487,
      "Ġdem": 1488,
      "bo": 1489,
      "ization": 1490,
      "Ġcontact": 1491,
      "port": 1492,
      "med": 1493,
      "pped": 1494,
      "Ġuntil": 1495,
      "Ġmaterial": 1496,
      "ering": 1497,
      "Ġturn": 1498,
      "ush": 1499,
      "Ġpar": 1500,
      "Ġoften": 1501,
      "Ġpossible": 1502,
      "ries": 1503,
      "Ġreport": 1504,
      "Ġindivid": 1505,
      "Ġpain": 1506,
      "Ġcreate": 1507,
      "ott": 1508,
      "ĠChrist": 1509,
      "min": 1510,
      "aring": 1511,
      "Ġsing": 1512,
      "Ġleg": 1513,
      "ember": 1514,
      "Ġpersonal": 1515,
      "enef": 1516,
      "ogra": 1517,
      "ered": 1518,
      "olution": 1519,
      "Ġvide": 1520,
      "Ġhaving": 1521,
      "ury": 1522,
      "of": 1523,
      "ocus": 1524,
      "Ġwhy": 1525,
      "Ġtreat": 1526,
      "Ġbeaut": 1527,
      "Ġhist": 1528,
      "ream": 1529,
      "Ġdetail": 1530,
      "Ġresearch": 1531,
      "icle": 1532,
      "Ġelect": 1533,
      "ern": 1534,
      "ann": 1535,
      "Ġdra": 1536,
      "ina": 1537,
      "Ġpa": 1538,
      "Ġagainst": 1539,
      "ising": 1540,
      "part": 1541,
      "Ġsoft": 1542,
      "ĠComm": 1543,
      "ories": 1544,
      "iven": 1545,
      "ĠOne": 1546,
      "Ġask": 1547,
      "Ġhum": 1548,
      "ex": 1549,
      "Ġpast": 1550,
      "arent": 1551,
      "itive": 1552,
      "Ġbased": 1553,
      "Ġinclude": 1554,
      "lish": 1555,
      "Ġprice": 1556,
      "ows": 1557,
      "Ġperfect": 1558,
      "Ġtimes": 1559,
      "Ġla": 1560,
      "Ġindividual": 1561,
      "let": 1562,
      "ĠCent": 1563,
      "Ġaccount": 1564,
      "soci": 1565,
      "Ġside": 1566,
      "Ġrequire": 1567,
      "Ġkind": 1568,
      "Ġpot": 1569,
      "atures": 1570,
      "Ġexpect": 1571,
      "veral": 1572,
      "Ġpage": 1573,
      "side": 1574,
      "Ġcommunity": 1575,
      "ger": 1576,
      "Ġbeh": 1577,
      "Ġmembers": 1578,
      "pecial": 1579,
      "Ġbenef": 1580,
      "fer": 1581,
      "ĠTr": 1582,
      "ived": 1583,
      "Ġgovern": 1584,
      "Ġmult": 1585,
      "Ġmeans": 1586,
      "hor": 1587,
      "ording": 1588,
      "yle": 1589,
      "ination": 1590,
      "viron": 1591,
      "ney": 1592,
      "lling": 1593,
      "Ġmar": 1594,
      "ik": 1595,
      "ding": 1596,
      "Ġfour": 1597,
      "Ġbecome": 1598,
      "\".": 1599,
      "ured": 1600,
      "Ġline": 1601,
      "Ġes": 1602,
      "Ġworks": 1603,
      "ĠHowever": 1604,
      "ency": 1605,
      "cu": 1606,
      "ĠGod": 1607,
      "Ġtem": 1608,
      "Ġcontrol": 1609,
      "Ġwrit": 1610,
      "Ġdone": 1611,
      "ready": 1612,
      "omen": 1613,
      "Ġcou": 1614,
      "Ġclo": 1615,
      "Ġmakes": 1616,
      "Ġlim": 1617,
      "oice": 1618,
      "Ġspecific": 1619,
      "Ġvari": 1620,
      "Ġword": 1621,
      "ken": 1622,
      "the": 1623,
      "Ġquick": 1624,
      "Ġsw": 1625,
      "ĠUniversity": 1626,
      "ĠCo": 1627,
      "jor": 1628,
      "iting": 1629,
      "Ġsol": 1630,
      "Ġopportun": 1631,
      "ĠAfter": 1632,
      "ley": 1633,
      "Ġthing": 1634,
      "Ġdevelopment": 1635,
      "Ġfocus": 1636,
      "uro": 1637,
      "aking": 1638,
      "ript": 1639,
      "anies": 1640,
      "Ġens": 1641,
      "Ġenough": 1642,
      "Ġcomes": 1643,
      "lement": 1644,
      "br": 1645,
      "Ġmove": 1646,
      "Ġlow": 1647,
      "Ġtool": 1648,
      "conom": 1649,
      "Ġeduc": 1650,
      "ĠAm": 1651,
      "Ġocc": 1652,
      "Ġfut": 1653,
      "Ġnight": 1654,
      "ĠEng": 1655,
      "ands": 1656,
      "Ġcertain": 1657,
      "Ġnet": 1658,
      "Ġalready": 1659,
      "Ġtyp": 1660,
      "ĠSu": 1661,
      "Ġseveral": 1662,
      "Ġspace": 1663,
      "Ġreview": 1664,
      "ane": 1665,
      "Ġbody": 1666,
      "Ġtre": 1667,
      "aim": 1668,
      "Ġleft": 1669,
      "Ġhot": 1670,
      "Ġlive": 1671,
      "Ġothers": 1672,
      "Ġkey": 1673,
      "anks": 1674,
      "Ġnon": 1675,
      "uck": 1676,
      "Ġjob": 1677,
      "Ġclean": 1678,
      "Ġshort": 1679,
      "Ġsocial": 1680,
      "Ġet": 1681,
      "urity": 1682,
      "ĠApp": 1683,
      "Ġacross": 1684,
      "Ġcover": 1685,
      "Ġanal": 1686,
      "urs": 1687,
      "Ġbelow": 1688,
      "Ġpurch": 1689,
      "Ġhig": 1690,
      "rop": 1691,
      "IN": 1692,
      "Ġconsider": 1693,
      "oint": 1694,
      "Ġce": 1695,
      "Ġredu": 1696,
      "aff": 1697,
      "ethod": 1698,
      "Ġgetting": 1699,
      "ches": 1700,
      "Ġpack": 1701,
      "Ġever": 1702,
      "vironment": 1703,
      "ĠMar": 1704,
      "Ġfav": 1705,
      "Ġste": 1706,
      "Ġcountry": 1707,
      "Ġinstall": 1708,
      "Ġvers": 1709,
      "Ġfund": 1710,
      "Ġexample": 1711,
      "Ġshare": 1712,
      "ĠFl": 1713,
      "Ġhold": 1714,
      "Ġoffers": 1715,
      "ĠEn": 1716,
      "ither": 1717,
      "urther": 1718,
      "Ġmusic": 1719,
      "Ġmajor": 1720,
      "Ġfar": 1721,
      "Ġcompet": 1722,
      "oring": 1723,
      "Ġorig": 1724,
      "Ġparticular": 1725,
      "Ġbit": 1726,
      "Ġrange": 1727,
      "ĠMay": 1728,
      "Ġcompanies": 1729,
      "ances": 1730,
      "Ġfuture": 1731,
      "ograph": 1732,
      "ged": 1733,
      "The": 1734,
      "Ġrecord": 1735,
      "Ġdeli": 1736,
      "ots": 1737,
      "wards": 1738,
      "Ġfore": 1739,
      "alf": 1740,
      "Ġexpl": 1741,
      "Ġdoing": 1742,
      "by": 1743,
      "par": 1744,
      "Ġindustry": 1745,
      "ully": 1746,
      "ai": 1747,
      "Ġmind": 1748,
      "Ġboo": 1749,
      "ĠYour": 1750,
      "inc": 1751,
      "Ġstep": 1752,
      "ides": 1753,
      "Ġmean": 1754,
      "Ġleast": 1755,
      "ference": 1756,
      "Ġvalue": 1757,
      "ĠCar": 1758,
      "ES": 1759,
      "Ġdeal": 1760,
      "Ġcal": 1761,
      "Ġpriv": 1762,
      "ĠCont": 1763,
      "Ġonce": 1764,
      "ĠTra": 1765,
      "ee": 1766,
      "ift": 1767,
      "Ġchoo": 1768,
      "Ġemail": 1769,
      "err": 1770,
      "Ġbring": 1771,
      "Ġcity": 1772,
      "ners": 1773,
      "Ġcamp": 1774,
      "Ġstarted": 1775,
      "most": 1776,
      "lf": 1777,
      "ribut": 1778,
      "ilt": 1779,
      "atic": 1780,
      "Ġhours": 1781,
      "osed": 1782,
      "ĠPr": 1783,
      "Ġseason": 1784,
      "iful": 1785,
      "Ġinvol": 1786,
      "Ġident": 1787,
      "Ġstory": 1788,
      "Ġcomb": 1789,
      "Ġstudy": 1790,
      "ones": 1791,
      "Ġcalled": 1792,
      "ON": 1793,
      "cle": 1794,
      "ilities": 1795,
      "Ġactually": 1796,
      "urance": 1797,
      "Ġbed": 1798,
      "Ġproblem": 1799,
      "Ġreason": 1800,
      "ĠComp": 1801,
      "Ġrecomm": 1802,
      "Ġbuilding": 1803,
      "Ġfield": 1804,
      "ĠInst": 1805,
      "ĠIntern": 1806,
      "Ġrecommend": 1807,
      "Ġwind": 1808,
      "Ġreturn": 1809,
      "Ġbrand": 1810,
      "Ġcustomers": 1811,
      "ĠX": 1812,
      "cell": 1813,
      "ĠSy": 1814,
      "Ġmethod": 1815,
      "Ġcut": 1816,
      "Ġaddress": 1817,
      "aces": 1818,
      "'d": 1819,
      "ource": 1820,
      "Ġris": 1821,
      "ino": 1822,
      "Ġsum": 1823,
      "ĠWor": 1824,
      "ape": 1825,
      "ec": 1826,
      "Ġvol": 1827,
      "Ġfeatures": 1828,
      "fort": 1829,
      "Ġchall": 1830,
      "ĠNe": 1831,
      "Ġminutes": 1832,
      "Ġtechnology": 1833,
      "Ġz": 1834,
      "Ġpict": 1835,
      "ster": 1836,
      "ĠServ": 1837,
      "Ġproperty": 1838,
      "ĠRo": 1839,
      "duct": 1840,
      "Ġrespons": 1841,
      "ources": 1842,
      "Ġdownload": 1843,
      "Ġess": 1844,
      "Ġvideo": 1845,
      "Ġprofessional": 1846,
      "Ġmil": 1847,
      "Ġsuper": 1848,
      "bal": 1849,
      "ĠChe": 1850,
      "Ġtax": 1851,
      "Ġdidn": 1852,
      "Ġamount": 1853,
      "AT": 1854,
      "Ġ,": 1855,
      "Ġcontent": 1856,
      "Ġclose": 1857,
      "Ġplease": 1858,
      "Ġstrong": 1859,
      "Ġquestions": 1860,
      "enn": 1861,
      "ford": 1862,
      "Ġsearch": 1863,
      "ĠSte": 1864,
      "arning": 1865,
      "Ġwa": 1866,
      "Ġfriends": 1867,
      "resent": 1868,
      "go": 1869,
      "atural": 1870,
      "Ġexc": 1871,
      "ips": 1872,
      "Ġdiscuss": 1873,
      "Ġtraining": 1874,
      "Ġabove": 1875,
      "Ġheart": 1876,
      "Ġenvironment": 1877,
      "uf": 1878,
      "Ġpie": 1879,
      "Ġresults": 1880,
      "Ġcharact": 1881,
      "ister": 1882,
      "Ġtype": 1883,
      "ĠDes": 1884,
      "Ġweb": 1885,
      "ply": 1886,
      "Ġdoesn": 1887,
      "lished": 1888,
      "Ġstay": 1889,
      "Ġeverything": 1890,
      "Ġoffic": 1891,
      "ledge": 1892,
      "Ġdr": 1893,
      "Ġport": 1894,
      "Ġbegin": 1895,
      "icy": 1896,
      "Ġknown": 1897,
      "not": 1898,
      "crib": 1899,
      "unch": 1900,
      "Ġyoung": 1901,
      "Ġmonths": 1902,
      "Ġgovernment": 1903,
      "Ġgiven": 1904,
      "ĠGu": 1905,
      "ancial": 1906,
      "ians": 1907,
      "ulation": 1908,
      "light": 1909,
      "Ġsimple": 1910,
      "Ġey": 1911,
      "ĠMe": 1912,
      "ched": 1913,
      "Ġtot": 1914,
      "pecially": 1915,
      "Ġmom": 1916,
      "Ġprovides": 1917,
      "AN": 1918,
      "Ġmanagement": 1919,
      "Ġsingle": 1920,
      "iod": 1921,
      "rap": 1922,
      "Ġbar": 1923,
      "sw": 1924,
      "sh": 1925,
      "Ġthought": 1926,
      "Ġsound": 1927,
      "Ġmot": 1928,
      "Ġmillion": 1929,
      "Ġenc": 1930,
      "Ġmess": 1931,
      "Ġwon": 1932,
      "Ġearly": 1933,
      "ĠMed": 1934,
      "Ġwond": 1935,
      "idd": 1936,
      "Ġhope": 1937,
      "Ġrele": 1938,
      "Ġvarious": 1939,
      "Ġpress": 1940,
      "ring": 1941,
      "cks": 1942,
      "Ġupd": 1943,
      "Ġcred": 1944,
      "Ġmen": 1945,
      "ĠBo": 1946,
      "ensive": 1947,
      "ĠFe": 1948,
      "Ġcult": 1949,
      "Ġtravel": 1950,
      "Ġyet": 1951,
      "ĠNot": 1952,
      "Ġeconom": 1953,
      "Ġconnect": 1954,
      "Ġrepl": 1955,
      "Ġdiff": 1956,
      "Ġimprove": 1957,
      "Ġflo": 1958,
      "ĠPlease": 1959,
      "hers": 1960,
      "app": 1961,
      "Ġtas": 1962,
      "ergy": 1963,
      "Ġcomput": 1964,
      "ĠAmerican": 1965,
      "Ġant": 1966,
      "pro": 1967,
      "Ġcame": 1968,
      "Ġfollowing": 1969,
      "osp": 1970,
      "AR": 1971,
      "over": 1972,
      "resh": 1973,
      "ĠEuro": 1974,
      "acy": 1975,
      "Ġsays": 1976,
      "Ġwhether": 1977,
      "Ġrequired": 1978,
      "ges": 1979,
      "mber": 1980,
      "Ġtook": 1981,
      "ume": 1982,
      "Ġcard": 1983,
      "fully": 1984,
      "Ġcra": 1985,
      "Ġissues": 1986,
      "idence": 1987,
      "Ġsize": 1988,
      "ibility": 1989,
      "irm": 1990,
      "Ġhappen": 1991,
      "une": 1992,
      "hn": 1993,
      "Ġpercent": 1994,
      "asing": 1995,
      "Ġappear": 1996,
      "Ġexam": 1997,
      "Ġareas": 1998,
      "che": 1999,
      "illed": 2000,
      "Ġmeas": 2001,
      "Ġdue": 2002,
      "Ġperformance": 2003,
      "Ġ/": 2004,
      "iday": 2005,
      "cript": 2006,
      "Ġwhole": 2007,
      "ead": 2008,
      "Ġunique": 2009,
      "ĠNow": 2010,
      "mb": 2011,
      "cer": 2012,
      "Ġbeautiful": 2013,
      "gs": 2014,
      "uff": 2015,
      "Ġfurther": 2016,
      "ĠWhile": 2017,
      "Ġtell": 2018,
      "ĠÂ": 2019,
      "Ġmedia": 2020,
      "Ġidea": 2021,
      "Ġcommon": 2022,
      "ental": 2023,
      "Ġexperien": 2024,
      "book": 2025,
      "Ġliving": 2026,
      "tt": 2027,
      "Ġcustomer": 2028,
      "ĠSome": 2029,
      "Ġdig": 2030,
      "Ġmanag": 2031,
      "though": 2032,
      "Ġsomeone": 2033,
      "augh": 2034,
      "ĠRep": 2035,
      "ufact": 2036,
      "ogn": 2037,
      "Ġclaim": 2038,
      "Ġauthor": 2039,
      "Ġele": 2040,
      "ites": 2041,
      "ĠIm": 2042,
      "vert": 2043,
      "Ġstrateg": 2044,
      "Ġdesigned": 2045,
      "abor": 2046,
      "Ġassist": 2047,
      "Ġincludes": 2048,
      "Ġseen": 2049,
      "lege": 2050,
      "Ġselect": 2051,
      "ruction": 2052,
      "aps": 2053,
      "icult": 2054,
      "ggest": 2055,
      "Ġfre": 2056,
      "play": 2057,
      "Ġnear": 2058,
      "Ġstaff": 2059,
      "Ġnews": 2060,
      "Ġenergy": 2061,
      "Ġaud": 2062,
      "Ġrelations": 2063,
      "Ġperiod": 2064,
      "Ġ[": 2065,
      "Ġlater": 2066,
      "yl": 2067,
      "ication": 2068,
      "Ġphys": 2069,
      "Ġhost": 2070,
      "Ġtable": 2071,
      "Ġtaking": 2072,
      "Ġdam": 2073,
      "Ġtext": 2074,
      "Ġmach": 2075,
      "ww": 2076,
      "Ġtal": 2077,
      "xim": 2078,
      "Ġage": 2079,
      "ĠUnited": 2080,
      "Ġprob": 2081,
      "Ġprovided": 2082,
      "rict": 2083,
      "Ġeffective": 2084,
      "wh": 2085,
      "Ġsoftware": 2086,
      "ony": 2087,
      "ored": 2088,
      "Ġeither": 2089,
      "ued": 2090,
      "Ġentire": 2091,
      "come": 2092,
      "Ġdocu": 2093,
      "reet": 2094,
      "Ġneeded": 2095,
      "Ġensure": 2096,
      "urch": 2097,
      "Ġamong": 2098,
      "Ġnecess": 2099,
      "Ġespecially": 2100,
      "ained": 2101,
      "Ġparticip": 2102,
      "eral": 2103,
      "ided": 2104,
      "Ġoffice": 2105,
      "omes": 2106,
      "Ġbelieve": 2107,
      "ables": 2108,
      "Ġprep": 2109,
      "ctor": 2110,
      "hing": 2111,
      "ls": 2112,
      "Ġengine": 2113,
      "Ġsuggest": 2114,
      "Ġeff": 2115,
      "Ġchoose": 2116,
      "selves": 2117,
      "Ġoptions": 2118,
      "nov": 2119,
      "Ġprint": 2120,
      "Ġsn": 2121,
      "Ġfront": 2122,
      "Ġhuman": 2123,
      "Ġsignific": 2124,
      "gr": 2125,
      "Ġapplication": 2126,
      "ĠBy": 2127,
      "Ġparent": 2128,
      "af": 2129,
      "AS": 2130,
      "Ġwomen": 2131,
      "ification": 2132,
      "Ġcond": 2133,
      "ĠJust": 2134,
      "Ġwent": 2135,
      "rew": 2136,
      "Ġquite": 2137,
      "Ġglo": 2138,
      "aur": 2139,
      "itted": 2140,
      "Ġpotential": 2141,
      "lex": 2142,
      "Ġfunction": 2143,
      "Ġprotect": 2144,
      "ĠEurope": 2145,
      "astic": 2146,
      "Ġsimply": 2147,
      "aching": 2148,
      "Ġach": 2149,
      "Ġoil": 2150,
      "Ġcomfort": 2151,
      "ĠÐ": 2152,
      "Ġspend": 2153,
      "nam": 2154,
      "rodu": 2155,
      "Ġhistory": 2156,
      "Ġetc": 2157,
      "ili": 2158,
      "Ġexist": 2159,
      "Ġface": 2160,
      "Ġideas": 2161,
      "imate": 2162,
      "iously": 2163,
      "OR": 2164,
      "Ġseries": 2165,
      "itc": 2166,
      "Ġrequest": 2167,
      "Ġyourself": 2168,
      "Ġeveryone": 2169,
      "Ġalmost": 2170,
      "Ġmag": 2171,
      "Ġfive": 2172,
      "Ġhy": 2173,
      "Ġwide": 2174,
      "Ġdifficult": 2175,
      "Ġland": 2176,
      "Ġphone": 2177,
      "gra": 2178,
      "Ġmoder": 2179,
      "inking": 2180,
      "Ġsystems": 2181,
      "Ġquestion": 2182,
      "Ġcir": 2183,
      "Ġknowledge": 2184,
      "Ġfinancial": 2185,
      "Ġbreak": 2186,
      "ators": 2187,
      "Ġclear": 2188,
      "ĠGo": 2189,
      "ĠCal": 2190,
      "Ġdeterm": 2191,
      "ilar": 2192,
      "Ġnatural": 2193,
      "uation": 2194,
      "Ġdou": 2195,
      "Ġinit": 2196,
      "Ġmiss": 2197,
      "Ġfavor": 2198,
      "Ġself": 2199,
      "Ġextra": 2200,
      "gle": 2201,
      "Ġwall": 2202,
      "ĠMin": 2203,
      "ler": 2204,
      "Ġhalf": 2205,
      "Ġlikely": 2206,
      "Ðµ": 2207,
      "ĠSec": 2208,
      "gest": 2209,
      "Ġevents": 2210,
      "azing": 2211,
      "Ġanything": 2212,
      "ĠPart": 2213,
      "ĠDis": 2214,
      "ires": 2215,
      "Ġhowever": 2216,
      "Ġposition": 2217,
      "Ġways": 2218,
      "Ġtour": 2219,
      "Ġrepresent": 2220,
      "son": 2221,
      "ED": 2222,
      "ises": 2223,
      "ees": 2224,
      "ops": 2225,
      "Ġproblems": 2226,
      "ĠJohn": 2227,
      "irt": 2228,
      "Ġsoon": 2229,
      "ĠPer": 2230,
      "ĠDr": 2231,
      "oid": 2232,
      "Ġpopular": 2233,
      "ĠSchool": 2234,
      "Ġstruct": 2235,
      "ĠHere": 2236,
      "ĠAg": 2237,
      "ief": 2238,
      "itch": 2239,
      "Ġpan": 2240,
      "Ġcreated": 2241,
      "Ġautom": 2242,
      "face": 2243,
      "Ġstyle": 2244,
      "Ġsecurity": 2245,
      "angu": 2246,
      "Ġagree": 2247,
      "Ġveh": 2248,
      "Ġansw": 2249,
      "ibr": 2250,
      "Ġadded": 2251,
      "ĠQu": 2252,
      "ĠCity": 2253,
      "Ġusers": 2254,
      "ĠAust": 2255,
      "ĠGra": 2256,
      "Ġregard": 2257,
      "ĠState": 2258,
      "Ġfit": 2259,
      "ĠPre": 2260,
      "Ġcolor": 2261,
      "Ġgames": 2262,
      "Ġclients": 2263,
      "Ġcrit": 2264,
      "Ġfall": 2265,
      "Ġsignificant": 2266,
      "Ġaccept": 2267,
      "Ġwriting": 2268,
      "Ġinsurance": 2269,
      "Ġissue": 2270,
      "anced": 2271,
      "aining": 2272,
      "Ġwhite": 2273,
      "ĠCount": 2274,
      "ĠPe": 2275,
      "rown": 2276,
      "Ġabs": 2277,
      "Ġtaken": 2278,
      "Ġwatch": 2279,
      "arr": 2280,
      "back": 2281,
      "ĠKe": 2282,
      "Ġmodel": 2283,
      "Ġmanufact": 2284,
      "Ġpick": 2285,
      "Ġred": 2286,
      "ĠSouth": 2287,
      "ipment": 2288,
      "Ġtrack": 2289,
      "reme": 2290,
      "EN": 2291,
      "time": 2292,
      "Ġimpact": 2293,
      "Ġblack": 2294,
      "etimes": 2295,
      "ze": 2296,
      "Ġfast": 2297,
      "Ġrelationship": 2298,
      "Ġdeb": 2299,
      "uge": 2300,
      "Ġforward": 2301,
      "Ġmor": 2302,
      "Ġthird": 2303,
      "ĠStud": 2304,
      "ĠAb": 2305,
      "ĠBr": 2306,
      "Ġuser": 2307,
      "Ġago": 2308,
      "Ġincrease": 2309,
      "Ġseem": 2310,
      "val": 2311,
      "pper": 2312,
      "olutions": 2313,
      "Ġsend": 2314,
      "ĠTw": 2315,
      "Ġskin": 2316,
      "ung": 2317,
      "Ġcoll": 2318,
      "Ġlearning": 2319,
      "Ġfail": 2320,
      "Ġsafe": 2321,
      "new": 2322,
      "rie": 2323,
      "icro": 2324,
      "Ġchanges": 2325,
      "ok": 2326,
      "iple": 2327,
      "Ġdetails": 2328,
      "Ġlay": 2329,
      "Ġrisk": 2330,
      "Ġfeature": 2331,
      "Ġreceive": 2332,
      "Ġsho": 2333,
      "ĠDon": 2334,
      "ĠNational": 2335,
      "Ġcell": 2336,
      "ille": 2337,
      "Ġhigher": 2338,
      "Ġrate": 2339,
      "Ġeducation": 2340,
      "Ġsubject": 2341,
      "Ġstra": 2342,
      "Ġcontract": 2343,
      "Ġready": 2344,
      "ights": 2345,
      "Ġpaper": 2346,
      "Ġopportunity": 2347,
      "Ġthroughout": 2348,
      "Ġut": 2349,
      "elt": 2350,
      "Ġassoci": 2351,
      "itchen": 2352,
      "Ġfire": 2353,
      "Ġroad": 2354,
      "ĠNorth": 2355,
      "put": 2356,
      "Ġusually": 2357,
      "ĠHis": 2358,
      "ĠWill": 2359,
      "Ġbad": 2360,
      "rect": 2361,
      "Ġskills": 2362,
      "iver": 2363,
      "Ġbox": 2364,
      "Ġtakes": 2365,
      "ĠThanks": 2366,
      "Ġkids": 2367,
      "Ġdepend": 2368,
      "Ġwonder": 2369,
      "ĠInc": 2370,
      "Ġestab": 2371,
      "ĠTH": 2372,
      "Ġconsum": 2373,
      "ux": 2374,
      "Ġcoming": 2375,
      "Ġregular": 2376,
      "atur": 2377,
      "ĠBu": 2378,
      "icated": 2379,
      "ĠSm": 2380,
      "Ġlink": 2381,
      "medi": 2382,
      "ried": 2383,
      "Ġlat": 2384,
      "Ġpractice": 2385,
      "verage": 2386,
      "Ġda": 2387,
      "Ġsales": 2388,
      "Ġprojects": 2389,
      "Ġmatter": 2390,
      "\",": 2391,
      "ĠFrom": 2392,
      "Ġdel": 2393,
      "opy": 2394,
      "Ġtreatment": 2395,
      "Ġdate": 2396,
      "eter": 2397,
      "apt": 2398,
      "mit": 2399,
      "Ġexcell": 2400,
      "Ġjour": 2401,
      "Ġcurrently": 2402,
      "Ġrather": 2403,
      "Ġtradition": 2404,
      "Ġelse": 2405,
      "Ġsent": 2406,
      "do": 2407,
      "Ġdefin": 2408,
      "Ġparty": 2409,
      "Ġoutside": 2410,
      "Ġrespect": 2411,
      "Ġstore": 2412,
      "ĠJan": 2413,
      "ival": 2414,
      "Ġadditional": 2415,
      "IS": 2416,
      "Ġtrying": 2417,
      "Ġtou": 2418,
      "Ġtalk": 2419,
      "ĠMr": 2420,
      "Ġoriginal": 2421,
      "vent": 2422,
      "Ġeasily": 2423,
      "Ġsle": 2424,
      "ĠApr": 2425,
      "Ġimage": 2426,
      "ĠWorld": 2427,
      "AL": 2428,
      "Ġprivate": 2429,
      "Ġwalk": 2430,
      "Ġvariety": 2431,
      "Ġlocated": 2432,
      "Ġwood": 2433,
      "oura": 2434,
      "ha": 2435,
      "itut": 2436,
      "minist": 2437,
      "where": 2438,
      "Ġill": 2439,
      "Ġinsp": 2440,
      "Ġcontinue": 2441,
      "Ã©": 2442,
      "Ġaf": 2443,
      "Ġfilm": 2444,
      "Ġmob": 2445,
      "umb": 2446,
      "ison": 2447,
      "Ġattend": 2448,
      "IT": 2449,
      "Ġwanted": 2450,
      "Ġblog": 2451,
      "oon": 2452,
      "Ġpret": 2453,
      "Ġnice": 2454,
      "Ġbott": 2455,
      "used": 2456,
      "Ġprobably": 2457,
      "Ġcoun": 2458,
      "Ġactivities": 2459,
      "itor": 2460,
      "Ġchoice": 2461,
      "Ð¾": 2462,
      "ules": 2463,
      "Ġ#": 2464,
      "Ġstat": 2465,
      "Ġrecogn": 2466,
      "Ġaccording": 2467,
      "Ġrole": 2468,
      "Ġaction": 2469,
      "IC": 2470,
      "??": 2471,
      "empt": 2472,
      "arget": 2473,
      "itting": 2474,
      "Ġinside": 2475,
      "Ġbuilt": 2476,
      "Ġinfl": 2477,
      "ĠPar": 2478,
      "Ġstandard": 2479,
      "ball": 2480,
      "Ġlonger": 2481,
      "Ġrunning": 2482,
      "ĠUs": 2483,
      "Ġcannot": 2484,
      "Ġreceived": 2485,
      "Ġcharacter": 2486,
      "Ġcode": 2487,
      "ĠAcc": 2488,
      "Ġmaintain": 2489,
      "Ġfinal": 2490,
      "Ġversion": 2491,
      "Ġitems": 2492,
      "Ġexact": 2493,
      "Ġsimilar": 2494,
      "Ġisn": 2495,
      "Ġsens": 2496,
      "itten": 2497,
      "Ġhappy": 2498,
      "Ġvia": 2499,
      "Ġobject": 2500,
      "Ġmarketing": 2501,
      "hib": 2502,
      "Ġgeneral": 2503,
      "Ġx": 2504,
      "ĠReg": 2505,
      "ĠHigh": 2506,
      "Ġinj": 2507,
      "aving": 2508,
      "Ġtotal": 2509,
      "Ġsave": 2510,
      "Ġmember": 2511,
      "Ġtrue": 2512,
      "Ġapply": 2513,
      "Ġprior": 2514,
      "Ġpretty": 2515,
      "action": 2516,
      "Ġfile": 2517,
      "Ġfoot": 2518,
      "ĠAf": 2519,
      "Ġconcern": 2520,
      "atform": 2521,
      "Ġcollect": 2522,
      "Ġstop": 2523,
      "Ġworth": 2524,
      "aced": 2525,
      "Ġmaterials": 2526,
      "Ġquickly": 2527,
      "ground": 2528,
      "inks": 2529,
      "Ġwords": 2530,
      "head": 2531,
      "Ġdrive": 2532,
      "Ġtold": 2533,
      "Ġrecent": 2534,
      "Ġreading": 2535,
      "Ġheld": 2536,
      "Ġbal": 2537,
      "Ġloss": 2538,
      "Ġshall": 2539,
      "Ġcredit": 2540,
      "Ġpoints": 2541,
      "fficient": 2542,
      "Ġproduction": 2543,
      "Ġanim": 2544,
      "izing": 2545,
      "pri": 2546,
      "ĠBra": 2547,
      "Ġallows": 2548,
      "ĠFin": 2549,
      "Ġgrowth": 2550,
      "Ġweight": 2551,
      "Ġweeks": 2552,
      "Ġpolit": 2553,
      "Ġamazing": 2554,
      "ĠAct": 2555,
      "Ġmodern": 2556,
      "era": 2557,
      "Ġhol": 2558,
      "Ġswe": 2559,
      "Ġrelated": 2560,
      "Ġground": 2561,
      "Ġupon": 2562,
      "Ġshows": 2563,
      "Ġofficial": 2564,
      "Ġcool": 2565,
      "Ġleave": 2566,
      "erc": 2567,
      "Ġhon": 2568,
      "Ġdeg": 2569,
      "Ġcosts": 2570,
      "iring": 2571,
      "Ġannoun": 2572,
      "Ġsaf": 2573,
      "Ġbooks": 2574,
      "ĠGe": 2575,
      "Ġdom": 2576,
      "ox": 2577,
      "Ġteac": 2578,
      "Ġoption": 2579,
      "Ġinde": 2580,
      "Ġcomputer": 2581,
      "ceed": 2582,
      "AC": 2583,
      "airs": 2584,
      "ĠPres": 2585,
      "Ġproviding": 2586,
      "idge": 2587,
      "ada": 2588,
      "Ġapproach": 2589,
      "Ġincluded": 2590,
      "Ġsix": 2591,
      "ĠYork": 2592,
      "Ġsun": 2593,
      "atory": 2594,
      "ĠStates": 2595,
      "ĠArt": 2596,
      "Ġneg": 2597,
      "aging": 2598,
      "Ġlatest": 2599,
      "ĠPark": 2600,
      "Ġanyone": 2601,
      "Ġsummer": 2602,
      "Ġability": 2603,
      "ĠEm": 2604,
      "Ġpatients": 2605,
      "Ġnetwork": 2606,
      "Ġpolicy": 2607,
      "Ġdisplay": 2608,
      "icles": 2609,
      "Ġbase": 2610,
      "hold": 2611,
      "RE": 2612,
      "ĠAre": 2613,
      "ecut": 2614,
      "Ġlocation": 2615,
      "Ġnecessary": 2616,
      "Ġarticle": 2617,
      "Ġequipment": 2618,
      "ĠCor": 2619,
      "Ġpurchase": 2620,
      "Ġworked": 2621,
      "ĠDep": 2622,
      "Ġbehind": 2623,
      "ysis": 2624,
      "ression": 2625,
      "Ġconditions": 2626,
      "Ġmix": 2627,
      "Ġcause": 2628,
      "ĠInt": 2629,
      "ĠMore": 2630,
      "Ġterms": 2631,
      "ĠApril": 2632,
      "Ġcouple": 2633,
      "Ġmedical": 2634,
      "Ġlower": 2635,
      "oud": 2636,
      "Ġchalleng": 2637,
      "ese": 2638,
      "Ġnorm": 2639,
      "Ġsolution": 2640,
      "Ġstri": 2641,
      "ĠEvery": 2642,
      "Ġaffect": 2643,
      "Ġtools": 2644,
      "wor": 2645,
      "Ġlangu": 2646,
      "ĠThen": 2647,
      "Ġtown": 2648,
      "ening": 2649,
      "ĠMost": 2650,
      "Ġbath": 2651,
      "Ġrecently": 2652,
      "ĠOct": 2653,
      "earch": 2654,
      "ĠUK": 2655,
      "Ġinternational": 2656,
      "oman": 2657,
      "based": 2658,
      "pose": 2659,
      "Ġlooks": 2660,
      "Ġdescrib": 2661,
      "Ġtypes": 2662,
      "Ġsell": 2663,
      "Ġhair": 2664,
      "ĠCenter": 2665,
      "ĠOf": 2666,
      "Ġboard": 2667,
      "ublic": 2668,
      "Ġbi": 2669,
      "Ġrad": 2670,
      "ters": 2671,
      "ĠBar": 2672,
      "Ġarr": 2673,
      "ĠAlso": 2674,
      "Ġintrodu": 2675,
      "Ġcele": 2676,
      "urg": 2677,
      "Ġemb": 2678,
      "Ġfig": 2679,
      "Ġple": 2680,
      "ĠAut": 2681,
      "ores": 2682,
      "Ġvi": 2683,
      "Ġlives": 2684,
      "Ġones": 2685,
      "ĠWest": 2686,
      "adem": 2687,
      "Ġarri": 2688,
      "reg": 2689,
      "Ġsat": 2690,
      "Ġgen": 2691,
      "Ġfeed": 2692,
      "Ġcommer": 2693,
      "hy": 2694,
      "Ġdraw": 2695,
      "Ġprograms": 2696,
      "Ġclick": 2697,
      "Ġfa": 2698,
      "Ġparts": 2699,
      "Ġdest": 2700,
      "ming": 2701,
      "Ġdeep": 2702,
      "ĠEd": 2703,
      "ĠMc": 2704,
      "Ġnothing": 2705,
      "Ġ00000": 2706,
      "iter": 2707,
      "Ġspeed": 2708,
      "my": 2709,
      "Ġstudent": 2710,
      "Ġsale": 2711,
      "Ġspeak": 2712,
      "ively": 2713,
      "ĠAustral": 2714,
      "akes": 2715,
      "Ġmeeting": 2716,
      "ky": 2717,
      "Ġexcellent": 2718,
      "Ġflow": 2719,
      "Ġasked": 2720,
      "iam": 2721,
      "Ġseems": 2722,
      "Ġtarget": 2723,
      "ĠSw": 2724,
      "Ġfresh": 2725,
      "Ġexpert": 2726,
      "Ġcondition": 2727,
      "ĠJu": 2728,
      "Ġsepar": 2729,
      "Ġscreen": 2730,
      "ana": 2731,
      "ension": 2732,
      "ĠOff": 2733,
      "....": 2734,
      "Ġlevels": 2735,
      "Ġmov": 2736,
      "nds": 2737,
      "orage": 2738,
      "Ġdevice": 2739,
      "Ġleaders": 2740,
      "erve": 2741,
      "Ġsafety": 2742,
      "oogle": 2743,
      "Ġplatform": 2744,
      "Ġstock": 2745,
      "Ġlic": 2746,
      "Ġgoal": 2747,
      "istic": 2748,
      "Ġrent": 2749,
      "Ġcook": 2750,
      "Ġprim": 2751,
      "Ġpers": 2752,
      "Ġcy": 2753,
      "Ġbud": 2754,
      "Ġcollection": 2755,
      "iforn": 2756,
      "ĠLet": 2757,
      "na": 2758,
      "Ġimmedi": 2759,
      "ached": 2760,
      "Ġsong": 2761,
      "ooking": 2762,
      "nal": 2763,
      "mas": 2764,
      "Ġplans": 2765,
      "ples": 2766,
      "Ġsche": 2767,
      "Ġkitchen": 2768,
      "ipe": 2769,
      "Ġplant": 2770,
      "Ġcat": 2771,
      "Ġchance": 2772,
      "cil": 2773,
      "bor": 2774,
      "Ġencoura": 2775,
      "Ġsqu": 2776,
      "ham": 2777,
      "Ġhighly": 2778,
      "--": 2779,
      "inary": 2780,
      "Ġcand": 2781,
      "ĠAir": 2782,
      "irit": 2783,
      "ifornia": 2784,
      "ĠPol": 2785,
      "Ġsett": 2786,
      "Ġ...": 2787,
      "Ġtit": 2788,
      "ĠAmerica": 2789,
      "Ġsense": 2790,
      "OS": 2791,
      "Ġsource": 2792,
      "reng": 2793,
      "cription": 2794,
      "Ġbenefits": 2795,
      "Ġdigital": 2796,
      "ĠMarch": 2797,
      "ĠDay": 2798,
      "Ġresources": 2799,
      "Ġleading": 2800,
      "Ġhuge": 2801,
      "Ġcases": 2802,
      "Ġdecision": 2803,
      "anc": 2804,
      "uary": 2805,
      "Ġcommercial": 2806,
      "Ġregist": 2807,
      "Ġrequirements": 2808,
      "//": 2809,
      "Ġclos": 2810,
      "ĠMany": 2811,
      "Ġtrust": 2812,
      "Ġsolutions": 2813,
      "Ġcountries": 2814,
      "Ġcam": 2815,
      "Ġinvolved": 2816,
      "ĠGet": 2817,
      "ffe": 2818,
      "cast": 2819,
      "Ġball": 2820,
      "Ġmass": 2821,
      "aby": 2822,
      "Ġexplo": 2823,
      "iddle": 2824,
      "Ġdaily": 2825,
      "Ġfavorite": 2826,
      "Ġminim": 2827,
      "Ġfram": 2828,
      "Ġenter": 2829,
      "Ġmoment": 2830,
      "Ġprices": 2831,
      "Ġlif": 2832,
      "Ġgives": 2833,
      "OT": 2834,
      "Ġhelps": 2835,
      "Ġded": 2836,
      "arth": 2837,
      "Ġextreme": 2838,
      "Ġexcept": 2839,
      "Ġmultiple": 2840,
      "edding": 2841,
      "Ġitself": 2842,
      "ma": 2843,
      "Ġnational": 2844,
      "ĠHealth": 2845,
      "Ġmatch": 2846,
      "Ġmobile": 2847,
      "sy": 2848,
      "Ġthemselves": 2849,
      "lier": 2850,
      "Ġrout": 2851,
      "ĠFirst": 2852,
      "bit": 2853,
      "ĠVal": 2854,
      "ession": 2855,
      "ological": 2856,
      "iet": 2857,
      "year": 2858,
      "mon": 2859,
      "Ġround": 2860,
      "ging": 2861,
      "str": 2862,
      "Ġarch": 2863,
      "ĠThank": 2864,
      "Ð°": 2865,
      "ivity": 2866,
      "://": 2867,
      "ĠCounty": 2868,
      "ĠHer": 2869,
      "Ġdise": 2870,
      "Ġfix": 2871,
      "Ġcorrect": 2872,
      "Ġglobal": 2873,
      "ĠEven": 2874,
      "Ġdoor": 2875,
      "ests": 2876,
      "sc": 2877,
      "ĠOnce": 2878,
      "ishing": 2879,
      "Ġinnov": 2880,
      "Ġparents": 2881,
      "Ġinstead": 2882,
      "Ġobs": 2883,
      "Ġfurn": 2884,
      "Ġwritten": 2885,
      "Ġimages": 2886,
      "just": 2887,
      "arden": 2888,
      "Ġmount": 2889,
      "Ġqual": 2890,
      "Ġsil": 2891,
      "Ġlate": 2892,
      "ences": 2893,
      "gu": 2894,
      "ĠGr": 2895,
      "ĠAny": 2896,
      "Ġsection": 2897,
      "Ġaverage": 2898,
      "Ġmachine": 2899,
      "arter": 2900,
      "OU": 2901,
      "atives": 2902,
      "Ġimm": 2903,
      "board": 2904,
      "Ġwrite": 2905,
      "Ġdirectly": 2906,
      "Ġcenter": 2907,
      "Ġdocument": 2908,
      "like": 2909,
      "itation": 2910,
      "Ġtouch": 2911,
      "Ġsmo": 2912,
      "iding": 2913,
      "Ġimplement": 2914,
      "Ġgreen": 2915,
      "ĠEl": 2916,
      "illing": 2917,
      "AM": 2918,
      "iture": 2919,
      "ĠGreat": 2920,
      "erous": 2921,
      "ĠInternational": 2922,
      "Ġessential": 2923,
      "Ġfully": 2924,
      "Ġlegal": 2925,
      "Ġsuit": 2926,
      "onse": 2927,
      "Ġhands": 2928,
      "Ġplanning": 2929,
      "ĠSince": 2930,
      "Ġmention": 2931,
      "ĠPa": 2932,
      "Ġphotos": 2933,
      "Ġcareer": 2934,
      "itely": 2935,
      "Ġclient": 2936,
      "Ġcompletely": 2937,
      "Ġdeliver": 2938,
      "urer": 2939,
      "Ġmorning": 2940,
      "ondon": 2941,
      "Ġattention": 2942,
      "Ġaw": 2943,
      "Ġgir": 2944,
      "ĠNet": 2945,
      "ober": 2946,
      "Ġpartners": 2947,
      "Ġremember": 2948,
      "Ġsites": 2949,
      "ĠAc": 2950,
      "isions": 2951,
      "Ġdecided": 2952,
      "Ġinteresting": 2953,
      "idered": 2954,
      "Ġmyself": 2955,
      "ĠMon": 2956,
      "aign": 2957,
      "irth": 2958,
      "ĠWind": 2959,
      "Ġlost": 2960,
      "izes": 2961,
      "wise": 2962,
      "ĠCons": 2963,
      "Ġpiece": 2964,
      "Ġprevent": 2965,
      "Ġ*": 2966,
      "Ġsaw": 2967,
      "ole": 2968,
      "Ġload": 2969,
      "now": 2970,
      "Ġfloor": 2971,
      "Ġ--": 2972,
      "ĠGerm": 2973,
      "Ġstreng": 2974,
      "Ġri": 2975,
      "ĠHome": 2976,
      "Ġrestaur": 2977,
      "agn": 2978,
      "Ġattack": 2979,
      "ĠWhy": 2980,
      "Ġgradu": 2981,
      "Ġdeath": 2982,
      "Ġprem": 2983,
      "hern": 2984,
      "hood": 2985,
      "ĠSim": 2986,
      "ressed": 2987,
      "ĠHouse": 2988,
      "Ġsupply": 2989,
      "ĠSept": 2990,
      "eal": 2991,
      "roll": 2992,
      "haps": 2993,
      "Ġcas": 2994,
      "Ġwarm": 2995,
      "lied": 2996,
      "Ġplaying": 2997,
      "Ġcreating": 2998,
      "Ġear": 2999,
      "Ġorganization": 3000,
      "lim": 3001,
      "Ġachieve": 3002,
      "Ġsurpr": 3003,
      "ties": 3004,
      "Ġobtain": 3005,
      "ilies": 3006,
      "Ġgiving": 3007,
      "Ġanswer": 3008,
      "Ġlimited": 3009,
      "Ġblood": 3010,
      "asons": 3011,
      "Ġdeveloped": 3012,
      "Ġhous": 3013,
      "ĠGoogle": 3014,
      "ĠJune": 3015,
      "Ġreach": 3016,
      "Ġcross": 3017,
      "Ġwel": 3018,
      "aves": 3019,
      "Ġcommit": 3020,
      "urb": 3021,
      "iction": 3022,
      "Ġdep": 3023,
      "Ġpositive": 3024,
      "ĠGl": 3025,
      "isf": 3026,
      "Ġgoes": 3027,
      "Ġsold": 3028,
      "vey": 3029,
      "Ġdru": 3030,
      "ĠWell": 3031,
      "Ġcomplex": 3032,
      "Ġ:": 3033,
      "Ġplayers": 3034,
      "dule": 3035,
      "Ġindividuals": 3036,
      "Ġpicture": 3037,
      "OM": 3038,
      "ĠAssoci": 3039,
      "ĠBlack": 3040,
      "mission": 3041,
      "Ġcirc": 3042,
      "verse": 3043,
      "Ġbecame": 3044,
      "aly": 3045,
      "Ġtrip": 3046,
      "Ġavoid": 3047,
      "Ġaware": 3048,
      "ĠDirect": 3049,
      "Ġpath": 3050,
      "uses": 3051,
      "Ġconcept": 3052,
      "Ġsometimes": 3053,
      "ĠAfric": 3054,
      "org": 3055,
      "Ġlab": 3056,
      "ades": 3057,
      "Ġadminist": 3058,
      "Ġconduct": 3059,
      "Ġconsult": 3060,
      "Ġtowards": 3061,
      "Ġheat": 3062,
      "aged": 3063,
      "Ġblock": 3064,
      "ĠTV": 3065,
      "ĠIndia": 3066,
      "fl": 3067,
      "Ġpromot": 3068,
      "Ġtraditional": 3069,
      "partment": 3070,
      "Ġapplications": 3071,
      "ĠEnglish": 3072,
      "Ġdecor": 3073,
      "ĠWhe": 3074,
      "ĠSal": 3075,
      "Ġemployees": 3076,
      "usion": 3077,
      "Ġhear": 3078,
      "Ġsuccessful": 3079,
      "Ġwar": 3080,
      "ĠBrit": 3081,
      "ought": 3082,
      "ĠBus": 3083,
      "nes": 3084,
      "ude": 3085,
      "Ġconsidered": 3086,
      "aches": 3087,
      "Ġbusinesses": 3088,
      "Ġgroups": 3089,
      "Ġbegan": 3090,
      "Ġaltern": 3091,
      "Ġthinking": 3092,
      "avy": 3093,
      "enty": 3094,
      "ĠChina": 3095,
      "ĠFeb": 3096,
      "Ġstorage": 3097,
      "wood": 3098,
      "cies": 3099,
      "Ġgold": 3100,
      "Ġmat": 3101,
      "Ġnature": 3102,
      "iles": 3103,
      "Ġconsist": 3104,
      "Ġcarry": 3105,
      "Ġanalysis": 3106,
      "arant": 3107,
      "apan": 3108,
      "Ġdry": 3109,
      "ĠRed": 3110,
      "Ġinterested": 3111,
      "Ġdamage": 3112,
      "ĠJanuary": 3113,
      "amb": 3114,
      "Ġglass": 3115,
      "Ġpred": 3116,
      "Ġstarting": 3117,
      "ĠOctober": 3118,
      "Ġattempt": 3119,
      "igation": 3120,
      "ĠLondon": 3121,
      "Ġfirm": 3122,
      "Ġbag": 3123,
      "Ġlanguage": 3124,
      "Ġrev": 3125,
      "su": 3126,
      "ET": 3127,
      "ĠAug": 3128,
      "rought": 3129,
      "ker": 3130,
      "Ġprofession": 3131,
      "ĠGener": 3132,
      "Ġvehicle": 3133,
      "uel": 3134,
      "hest": 3135,
      "chan": 3136,
      "ĠFree": 3137,
      "ira": 3138,
      "Ġexpected": 3139,
      "Ġadvant": 3140,
      "ength": 3141,
      "enge": 3142,
      "isc": 3143,
      "Ġoffe": 3144,
      "ĠPresident": 3145,
      "Ġtemper": 3146,
      "ama": 3147,
      "ĠHar": 3148,
      "ida": 3149,
      "pre": 3150,
      "Ġge": 3151,
      "mm": 3152,
      "ny": 3153,
      "Ġprec": 3154,
      "ption": 3155,
      "idents": 3156,
      "ĠSan": 3157,
      "rences": 3158,
      "Ġgar": 3159,
      "ulations": 3160,
      "Ġten": 3161,
      "Ġwonderful": 3162,
      "Ġwal": 3163,
      "Ġrights": 3164,
      "Ġactivity": 3165,
      "Ġdiv": 3166,
      "Ġep": 3167,
      "ashing": 3168,
      "Ġcelebr": 3169,
      "Ġfab": 3170,
      "ĠJes": 3171,
      "Ġappropri": 3172,
      "Ġwish": 3173,
      "Ġcopy": 3174,
      "ĠTechn": 3175,
      "Ġbudget": 3176,
      "Ġcourt": 3177,
      "Ġguide": 3178,
      "Ġinstru": 3179,
      "ĠJuly": 3180,
      "Ġrelease": 3181,
      "ĠBro": 3182,
      "Ġconstruction": 3183,
      "ĠDav": 3184,
      "Ġfair": 3185,
      "hel": 3186,
      "Ġproced": 3187,
      "artment": 3188,
      "Ġhit": 3189,
      "ĠRem": 3190,
      "Ġwrong": 3191,
      "Ġanaly": 3192,
      "Ġformer": 3193,
      "Ġunderstanding": 3194,
      "Ġplaces": 3195,
      "Ġhour": 3196,
      "ĠEach": 3197,
      "Ġtick": 3198,
      "Ġhealthy": 3199,
      "Ġpropos": 3200,
      "Ġgrowing": 3201,
      "band": 3202,
      "itute": 3203,
      "Ġorganiz": 3204,
      "Ġregion": 3205,
      "ĠService": 3206,
      "Ġmessage": 3207,
      "Ġmid": 3208,
      "Ġemerg": 3209,
      "Ġweeke": 3210,
      "Ġsleep": 3211,
      "dd": 3212,
      "Ġposted": 3213,
      "Ġexactly": 3214,
      "Ġpurpose": 3215,
      "Ġsituation": 3216,
      "Ġentry": 3217,
      "reci": 3218,
      "iff": 3219,
      "ĠChristmas": 3220,
      "uth": 3221,
      "gy": 3222,
      "Ġhor": 3223,
      "Ġinvestment": 3224,
      "ibly": 3225,
      "Ġdevices": 3226,
      "ĠSund": 3227,
      "ses": 3228,
      "Ġfamilies": 3229,
      "ĠDesign": 3230,
      "Ġfine": 3231,
      "Ġdifference": 3232,
      "EC": 3233,
      "ĠAN": 3234,
      "Ġcampaign": 3235,
      "ĠOut": 3236,
      "Ġreplace": 3237,
      "Ġunit": 3238,
      "ography": 3239,
      "mat": 3240,
      "Ġfarm": 3241,
      "ications": 3242,
      "Ġaim": 3243,
      "ĠTrans": 3244,
      "ĠFriday": 3245,
      "We": 3246,
      "Ġsubst": 3247,
      "aries": 3248,
      "key": 3249,
      "Ġexerc": 3250,
      "Ġaward": 3251,
      "Ġphysical": 3252,
      "yond": 3253,
      "Ġdream": 3254,
      "Ġjud": 3255,
      "ester": 3256,
      "pa": 3257,
      "Ġprevious": 3258,
      "Ġassess": 3259,
      "Ġpublished": 3260,
      "Ġmoving": 3261,
      "Ġphoto": 3262,
      "rast": 3263,
      "ĠMus": 3264,
      "Ġopportunities": 3265,
      "Ġeye": 3266,
      "ĠChar": 3267,
      "Ġeat": 3268,
      "Ġnote": 3269,
      "ek": 3270,
      "ica": 3271,
      "Ġresponse": 3272,
      "Ġinternet": 3273,
      "ĠCour": 3274,
      "Ġacqu": 3275,
      "ara": 3276,
      "rows": 3277,
      "Ġdefinitely": 3278,
      "ĠSer": 3279,
      "Ġpattern": 3280,
      "Ġeffort": 3281,
      "vant": 3282,
      "Ġgoals": 3283,
      "ĠAdd": 3284,
      "ĠWar": 3285,
      "Ġdark": 3286,
      "off": 3287,
      "ĠCommun": 3288,
      "Ġcontain": 3289,
      "ĠGroup": 3290,
      "ĠServices": 3291,
      "Ġlog": 3292,
      "het": 3293,
      "Ġuses": 3294,
      "Ġsubs": 3295,
      "zy": 3296,
      "Ġpressure": 3297,
      "oming": 3298,
      "ĠCoun": 3299,
      "ĠTod": 3300,
      "ĠJapan": 3301,
      "Ġenh": 3302,
      "Ġcateg": 3303,
      "Ġreduce": 3304,
      "Ġearn": 3305,
      "Ġsus": 3306,
      "Ġfelt": 3307,
      "ares": 3308,
      "Ġbank": 3309,
      "Ġcomment": 3310,
      "Ġhistor": 3311,
      "Ġfrequ": 3312,
      "ING": 3313,
      "Ġoffering": 3314,
      "ederal": 3315,
      "word": 3316,
      "olute": 3317,
      "ĠFace": 3318,
      "Ġmother": 3319,
      "porate": 3320,
      "ĠSeptember": 3321,
      "ĠProf": 3322,
      "Ġafford": 3323,
      "Ġbur": 3324,
      "Ġli": 3325,
      "¿½": 3326,
      "Ġcharge": 3327,
      "ï¿½": 3328,
      "Ġpictures": 3329,
      "Ġsmart": 3330,
      "Ġled": 3331,
      "ĠPat": 3332,
      "Ġspot": 3333,
      "__": 3334,
      "Ġcapt": 3335,
      "Ġgas": 3336,
      "EL": 3337,
      "Ġaccom": 3338,
      "Ġslow": 3339,
      "Ġexecut": 3340,
      "ovember": 3341,
      "Ġbenefit": 3342,
      "Ġpages": 3343,
      "Ġaspect": 3344,
      "Ġconvers": 3345,
      "Ġcash": 3346,
      "Ġwedding": 3347,
      "Ġinflu": 3348,
      "antly": 3349,
      "Ġbroad": 3350,
      "Ġneigh": 3351,
      "gram": 3352,
      "Ġhtt": 3353,
      "ĠLa": 3354,
      "itect": 3355,
      "Ġloved": 3356,
      "Ġcompon": 3357,
      "ari": 3358,
      "Ġcontribut": 3359,
      "Ġdelivery": 3360,
      "ĠOther": 3361,
      "cember": 3362,
      "Ġwait": 3363,
      "Ġerr": 3364,
      "rench": 3365,
      "ĠIN": 3366,
      "Ġactive": 3367,
      "Ġeasier": 3368,
      "Ġsatisf": 3369,
      "ĠDepartment": 3370,
      "Ġfight": 3371,
      "Ġserve": 3372,
      "raft": 3373,
      "ĠAlthough": 3374,
      "ST": 3375,
      "iling": 3376,
      "Ġtele": 3377,
      "Ġsurface": 3378,
      "Ġstuff": 3379,
      "ĠClick": 3380,
      "Ġintegr": 3381,
      "ruit": 3382,
      "ĠSee": 3383,
      "Ġpaid": 3384,
      "Ġinitial": 3385,
      "gar": 3386,
      "Ġpull": 3387,
      "ĠUp": 3388,
      "Ġadvice": 3389,
      "Ġgets": 3390,
      "sequ": 3391,
      "Ġviol": 3392,
      "rel": 3393,
      "ĠJesus": 3394,
      "Ġowners": 3395,
      "Ġshown": 3396,
      "EO": 3397,
      "cause": 3398,
      "rial": 3399,
      "ville": 3400,
      "ĠBusiness": 3401,
      "idential": 3402,
      "IL": 3403,
      "Ġsurround": 3404,
      "ĠRuss": 3405,
      "Ġmark": 3406,
      "ube": 3407,
      "ĠOver": 3408,
      "Ġroll": 3409,
      "Ġschools": 3410,
      "oph": 3411,
      "Ġindepend": 3412,
      "Ġvac": 3413,
      "Ġeffects": 3414,
      "Ġver": 3415,
      "Ġshop": 3416,
      "oms": 3417,
      "Ġspent": 3418,
      "orge": 3419,
      "ĠNovember": 3420,
      "Ġdemand": 3421,
      "Ġmeasure": 3422,
      "Ġoffered": 3423,
      "etic": 3424,
      "Ġexisting": 3425,
      "Ġstructure": 3426,
      "Ġrates": 3427,
      "Ġadult": 3428,
      "Ġult": 3429,
      "Ġdat": 3430,
      "pite": 3431,
      "uk": 3432,
      "AP": 3433,
      "ĠKing": 3434,
      "Ġuseful": 3435,
      "Ġcertainly": 3436,
      "Ġbasic": 3437,
      "Ġgave": 3438,
      "Ġmaxim": 3439,
      "ĠRead": 3440,
      "amed": 3441,
      "Ġoverall": 3442,
      "Ġreleased": 3443,
      "Ġstress": 3444,
      "Ġculture": 3445,
      "Ġhotel": 3446,
      "ĠTHE": 3447,
      "arily": 3448,
      "Ġcollege": 3449,
      "ask": 3450,
      "ams": 3451,
      "ĠMod": 3452,
      "Ġregarding": 3453,
      "attle": 3454,
      "Ġprefer": 3455,
      "ipping": 3456,
      "ĠMich": 3457,
      "ID": 3458,
      "Ġindic": 3459,
      "Ġguarant": 3460,
      "Ġappreci": 3461,
      "ĠDecember": 3462,
      "Ġdire": 3463,
      "rapy": 3464,
      "Ġdy": 3465,
      "Ġadvert": 3466,
      "ĠCle": 3467,
      "Ġexperienced": 3468,
      "place": 3469,
      "Ġnut": 3470,
      "ĠGood": 3471,
      "Ġtruly": 3472,
      "ĠSystem": 3473,
      "Ġstru": 3474,
      "Ġbrought": 3475,
      "oke": 3476,
      "Ġdog": 3477,
      "Ġtried": 3478,
      "Ġdemon": 3479,
      "ĠSunday": 3480,
      "ĠCalifornia": 3481,
      "right": 3482,
      "Ġclub": 3483,
      "ĠInternet": 3484,
      "lock": 3485,
      "Ġreve": 3486,
      "Ġincreased": 3487,
      "urt": 3488,
      "ĠBest": 3489,
      "itary": 3490,
      "Ġpayment": 3491,
      "Ġimmediately": 3492,
      "Ġble": 3493,
      "Ġheard": 3494,
      "Ġrepair": 3495,
      "ashion": 3496,
      "Ġtransfer": 3497,
      "sych": 3498,
      "ened": 3499,
      "Ġextremely": 3500,
      "Ġoptim": 3501,
      "Ġwasn": 3502,
      "Ġaccur": 3503,
      "Ġresponsible": 3504,
      "change": 3505,
      "ĠFlor": 3506,
      "Ġeyes": 3507,
      "Ġtransport": 3508,
      "ĠSatur": 3509,
      "Ġbasis": 3510,
      "Ġstories": 3511,
      "aks": 3512,
      "formation": 3513,
      "Ġcomfortable": 3514,
      "set": 3515,
      "ague": 3516,
      "Ġbehav": 3517,
      "Ġdouble": 3518,
      "ĠRet": 3519,
      "Ġlots": 3520,
      "ĠEuropean": 3521,
      "Th": 3522,
      "ancy": 3523,
      "Ġspirit": 3524,
      "Ġincreasing": 3525,
      "Ġaff": 3526,
      "Ġinterview": 3527,
      "lies": 3528,
      "Ġappoint": 3529,
      "Ġpet": 3530,
      "Ġassociated": 3531,
      "enior": 3532,
      "Ġeval": 3533,
      "Ġparticularly": 3534,
      "porary": 3535,
      "iced": 3536,
      "Ġstage": 3537,
      "Ġoccur": 3538,
      "ĠEast": 3539,
      "Ġdistribut": 3540,
      "ĠLaw": 3541,
      "vest": 3542,
      "Ġlack": 3543,
      "unt": 3544,
      "Ġeconomic": 3545,
      "Ġrespond": 3546,
      "Ġappropriate": 3547,
      "Ġfeeling": 3548,
      "useum": 3549,
      "Ġweekend": 3550,
      "ĠCompany": 3551,
      "ĠPri": 3552,
      "ressive": 3553,
      "Ġideal": 3554,
      "Ġbirth": 3555,
      "ertain": 3556,
      "umn": 3557,
      "Ġreported": 3558,
      "ĠFacebook": 3559,
      "iety": 3560,
      "ĠIns": 3561,
      "Ġadjust": 3562,
      "ĠCollege": 3563,
      "ibrary": 3564,
      "Ġter": 3565,
      "Ġdoll": 3566,
      "ĠBel": 3567,
      "ĠAugust": 3568,
      "Ġcompared": 3569,
      "ĠOp": 3570,
      "Ġloan": 3571,
      "Ġimag": 3572,
      "Ġson": 3573,
      "Ġsort": 3574,
      "PS": 3575,
      "asc": 3576,
      "bert": 3577,
      "ospital": 3578,
      "Ġpen": 3579,
      "Ġdisease": 3580,
      "ronic": 3581,
      "Ġannual": 3582,
      "Ġbottom": 3583,
      "ĠSpe": 3584,
      "ruary": 3585,
      "Ġhighest": 3586,
      "duc": 3587,
      "lin": 3588,
      "Ġbeyond": 3589,
      "ils": 3590,
      "Ġbackground": 3591,
      "house": 3592,
      "hens": 3593,
      "Ġgift": 3594,
      "Ġvot": 3595,
      "erved": 3596,
      "Ġmort": 3597,
      "Ġbaby": 3598,
      "zz": 3599,
      "nded": 3600,
      "ĠBoard": 3601,
      "body": 3602,
      "inner": 3603,
      "Ġextend": 3604,
      "Ġattract": 3605,
      "icks": 3606,
      "Ġweather": 3607,
      "Ġproduce": 3608,
      "ĠInter": 3609,
      "Ġutil": 3610,
      "Ġnotice": 3611,
      "mitted": 3612,
      "Ġsetting": 3613,
      "Ġtrade": 3614,
      "IG": 3615,
      "Ġborn": 3616,
      "Ġnormal": 3617,
      "Ġpolitical": 3618,
      "ancing": 3619,
      "Ġcompleted": 3620,
      "Ġreflect": 3621,
      "Ġhelping": 3622,
      "Ġbeginning": 3623,
      "Ġlargest": 3624,
      "ĠMake": 3625,
      "ustr": 3626,
      "Ġjoin": 3627,
      "Ġfurniture": 3628,
      "Ġdress": 3629,
      "Ġselection": 3630,
      "Ġpool": 3631,
      "ĠIS": 3632,
      "Ġdegree": 3633,
      "Ġmovie": 3634,
      "Ġreli": 3635,
      "Ġfeet": 3636,
      "bon": 3637,
      "tee": 3638,
      "Ġfell": 3639,
      "Ġpatient": 3640,
      "istics": 3641,
      "Ġblue": 3642,
      "Ġchanged": 3643,
      "ule": 3644,
      "des": 3645,
      "Ġlines": 3646,
      "istry": 3647,
      "ĠÂ£": 3648,
      "Ġhomes": 3649,
      "Ġpowerful": 3650,
      "olf": 3651,
      "Ġcove": 3652,
      "Ġdro": 3653,
      "Ġemot": 3654,
      "ulf": 3655,
      "ris": 3656,
      "ĠJe": 3657,
      "Ġtask": 3658,
      "imin": 3659,
      "In": 3660,
      "ĠPost": 3661,
      "ĠToday": 3662,
      "ologies": 3663,
      "vis": 3664,
      "Ġmethods": 3665,
      "Ġcollabor": 3666,
      "Ġund": 3667,
      "Ġmeaning": 3668,
      "ĠSaturday": 3669,
      "Ġmaster": 3670,
      "Ġsust": 3671,
      "Ġrace": 3672,
      "Ġcreative": 3673,
      "ĠCanada": 3674,
      "Ġbatter": 3675,
      "tenance": 3676,
      "ager": 3677,
      "Ġbelie": 3678,
      "ĠCheck": 3679,
      "ĠFind": 3680,
      "Ġcandid": 3681,
      "ded": 3682,
      "Ġchem": 3683,
      "Ġefficient": 3684,
      "Ġplayer": 3685,
      "ĠIndian": 3686,
      "ĠDel": 3687,
      "Ġrelax": 3688,
      "ĠFebruary": 3689,
      "Ġpow": 3690,
      "Ġprotection": 3691,
      "itter": 3692,
      "Ġing": 3693,
      "Ġclin": 3694,
      "Ġfiles": 3695,
      "Ġabsolute": 3696,
      "TM": 3697,
      "oly": 3698,
      "Ġband": 3699,
      "ĠGold": 3700,
      "iques": 3701,
      "Ġmodels": 3702,
      "ĠBecause": 3703,
      "ĠRec": 3704,
      "Ġthous": 3705,
      "Ġfinish": 3706,
      "acity": 3707,
      "ĠIT": 3708,
      "Ġestate": 3709,
      "Ġlength": 3710,
      "Ġknew": 3711,
      "Ġplayed": 3712,
      "Ġscience": 3713,
      "que": 3714,
      "ĠAnt": 3715,
      "wide": 3716,
      "aint": 3717,
      "Ġgreater": 3718,
      "Ġdead": 3719,
      "Ġsharing": 3720,
      "St": 3721,
      "Ġreasons": 3722,
      "Ġteams": 3723,
      "Ġallowed": 3724,
      "Ġcab": 3725,
      "Ġthanks": 3726,
      "Ġgrand": 3727,
      "Ġsteps": 3728,
      "Ġexhib": 3729,
      "Ġstraight": 3730,
      "ĠMarket": 3731,
      "Ġelectric": 3732,
      "ault": 3733,
      "rol": 3734,
      "Ġhelped": 3735,
      "iment": 3736,
      "ulated": 3737,
      "Ġsecure": 3738,
      "door": 3739,
      "ĠUse": 3740,
      "ĠDevelop": 3741,
      "venue": 3742,
      "Ġchallenge": 3743,
      "aling": 3744,
      "Ġnumbers": 3745,
      "Ġtrain": 3746,
      "ders": 3747,
      "odes": 3748,
      "Ġcards": 3749,
      "col": 3750,
      "Ġstrategy": 3751,
      "Ġinstitut": 3752,
      "Ġjourney": 3753,
      "Ġnearly": 3754,
      "Ġscient": 3755,
      "Ġlarger": 3756,
      "Ġvict": 3757,
      "Ġnation": 3758,
      "Ġmaybe": 3759,
      "more": 3760,
      "ĠPal": 3761,
      "ett": 3762,
      "ĠYes": 3763,
      "ĠStreet": 3764,
      "ĠProgram": 3765,
      "Ġbedroom": 3766,
      "Ġsoci": 3767,
      "Ġhop": 3768,
      "undred": 3769,
      "anch": 3770,
      "ĠSuper": 3771,
      "Ġrules": 3772,
      "Ġwine": 3773,
      "dom": 3774,
      "Ġmechan": 3775,
      "ipped": 3776,
      "atever": 3777,
      "ned": 3778,
      "ĠPort": 3779,
      "Ġtips": 3780,
      "icing": 3781,
      "Ġtechnical": 3782,
      "Ġrock": 3783,
      "Ġcapital": 3784,
      "Ġfat": 3785,
      "Ġidentify": 3786,
      "Ġprinc": 3787,
      "ously": 3788,
      "Ġevidence": 3789,
      "Ġcold": 3790,
      "ĠIr": 3791,
      "field": 3792,
      "AD": 3793,
      "roid": 3794,
      "Ġmill": 3795,
      "icip": 3796,
      "Ġalthough": 3797,
      "Ġthank": 3798,
      "Ġturned": 3799,
      "anging": 3800,
      "ĠDist": 3801,
      "Ġserved": 3802,
      "unte": 3803,
      "usive": 3804,
      "ĠSpr": 3805,
      "coming": 3806,
      "Ġrequires": 3807,
      "Ġthreat": 3808,
      "Ġfant": 3809,
      "Ġoccas": 3810,
      "Ġremo": 3811,
      "Ġpaint": 3812,
      "Ġwindow": 3813,
      "atically": 3814,
      "Ġexperts": 3815,
      "ĠEduc": 3816,
      "Ġestablished": 3817,
      "ĠWindows": 3818,
      "sec": 3819,
      "iant": 3820,
      "iny": 3821,
      "Ġconven": 3822,
      "Ġincome": 3823,
      "ĠiP": 3824,
      "ĠDuring": 3825,
      "ooks": 3826,
      "ĠHave": 3827,
      "EM": 3828,
      "hol": 3829,
      "Ġcovered": 3830,
      "Ġchann": 3831,
      "ĠAccording": 3832,
      "Ġ+": 3833,
      "Ġflav": 3834,
      "estern": 3835,
      "Ġmatt": 3836,
      "ivil": 3837,
      "Ġchurch": 3838,
      "Ġcommunication": 3839,
      "Ġcraft": 3840,
      "Ġcoffe": 3841,
      "ĠResearch": 3842,
      "Ġadvantage": 3843,
      "Ġcru": 3844,
      "ĠAssociation": 3845,
      "ĠSub": 3846,
      "Ġcho": 3847,
      "Ġitem": 3848,
      "atively": 3849,
      "Ġsaying": 3850,
      "ĠAustralia": 3851,
      "OL": 3852,
      "care": 3853,
      "Ġdefe": 3854,
      "Ġwear": 3855,
      "Ġplus": 3856,
      "Ġreports": 3857,
      "Ġfinally": 3858,
      "ray": 3859,
      "ĠSom": 3860,
      "Ġcontinu": 3861,
      "Ġstudies": 3862,
      "Ġstrength": 3863,
      "Ġfather": 3864,
      "ĠFound": 3865,
      "force": 3866,
      "Ġfill": 3867,
      "Ġconnection": 3868,
      "ĠÑ": 3869,
      "Ġpieces": 3870,
      "ĠFlorida": 3871,
      "ĠWhite": 3872,
      "ION": 3873,
      "Ġsty": 3874,
      "ula": 3875,
      "ĠHall": 3876,
      "ĠGovern": 3877,
      "aughter": 3878,
      "Ġonto": 3879,
      "Ġwants": 3880,
      "Ġalone": 3881,
      "Ġmanage": 3882,
      "Ġremain": 3883,
      "esome": 3884,
      "Ġbathroom": 3885,
      "la": 3886,
      "Ġpartner": 3887,
      "arc": 3888,
      "Ġchallenges": 3889,
      "Ġannounced": 3890,
      "ugh": 3891,
      "ĠAss": 3892,
      "ĠOh": 3893,
      "Ġletter": 3894,
      "Ġtitle": 3895,
      "ĠAnn": 3896,
      "semb": 3897,
      "aker": 3898,
      "ulate": 3899,
      "Ġretail": 3900,
      "Ġresist": 3901,
      "Ġcancer": 3902,
      "Ġupdate": 3903,
      "Ġdetermine": 3904,
      "ĠâĢ¢": 3905,
      "Ġsweet": 3906,
      "ĠAnother": 3907,
      "ĠSupp": 3908,
      "ĠBook": 3909,
      "Ġorganizations": 3910,
      "ĠMor": 3911,
      "see": 3912,
      "Ġsports": 3913,
      "Ġlands": 3914,
      "agram": 3915,
      "Ġliter": 3916,
      "Ġbillion": 3917,
      "Ġahead": 3918,
      "ĠWashing": 3919,
      "term": 3920,
      "iation": 3921,
      "Ġefforts": 3922,
      "ĠAv": 3923,
      "ĠSch": 3924,
      "Ġserious": 3925,
      "ĠDec": 3926,
      "order": 3927,
      "reed": 3928,
      "ĠMa": 3929,
      "ĠMac": 3930,
      "ĠMond": 3931,
      "ĠOb": 3932,
      "Ġbutton": 3933,
      "lands": 3934,
      "Ġstream": 3935,
      "ĠMicro": 3936,
      "Ġtraffic": 3937,
      "Ġfollowed": 3938,
      "Ġstates": 3939,
      "Ġsolid": 3940,
      "Ġspread": 3941,
      "oul": 3942,
      "Â®": 3943,
      "Ġmis": 3944,
      "ĠClub": 3945,
      "?\"": 3946,
      "nown": 3947,
      "ĠDown": 3948,
      "inter": 3949,
      "Ġcoffee": 3950,
      "ald": 3951,
      "Ġexperiences": 3952,
      "ship": 3953,
      "Ġfra": 3954,
      "Ġteaching": 3955,
      "Ġslight": 3956,
      "Ġtim": 3957,
      "gage": 3958,
      "Ġfinding": 3959,
      "Ġcry": 3960,
      "Ġperhaps": 3961,
      "Ġden": 3962,
      "ĠPC": 3963,
      "ĠPlay": 3964,
      "Ġmiddle": 3965,
      "Ġexpand": 3966,
      "Ġvill": 3967,
      "Ġgraph": 3968,
      "Ġgenerally": 3969,
      "Ġaren": 3970,
      "ĠCur": 3971,
      "ĠLove": 3972,
      "Ġincor": 3973,
      "ĠCouncil": 3974,
      "Ġorigin": 3975,
      "ĠFrench": 3976,
      "Ġsurv": 3977,
      "Ġreviews": 3978,
      "Ġdedicated": 3979,
      "Ġwild": 3980,
      "Ġwoman": 3981,
      "ĠMem": 3982,
      "ios": 3983,
      "encies": 3984,
      "Ġcars": 3985,
      "ĠWeb": 3986,
      "Ġflex": 3987,
      "Ġhundred": 3988,
      "Ġ|": 3989,
      "Ġacadem": 3990,
      "Ġguid": 3991,
      "ying": 3992,
      "ĠAC": 3993,
      "Ġmiles": 3994,
      "Ġdrop": 3995,
      "Ġopin": 3996,
      "Ġdemonstr": 3997,
      "Ġtree": 3998,
      "Ġtherefore": 3999,
      "Ġdriving": 4000,
      "Ġearlier": 4001,
      "othing": 4002,
      "phone": 4003,
      "Ġtrou": 4004,
      "overed": 4005,
      "ribute": 4006,
      "dy": 4007,
      "Ġfear": 4008,
      "ĠDem": 4009,
      "Ġhandle": 4010,
      "well": 4011,
      "Ġstandards": 4012,
      "Ġvalues": 4013,
      "Ġremove": 4014,
      "Ġowner": 4015,
      "Ġwinter": 4016,
      "Ġstrugg": 4017,
      "Ġpark": 4018,
      "ounds": 4019,
      "Ġdelic": 4020,
      "Ġassign": 4021,
      "rote": 4022,
      "Ġlooked": 4023,
      "iber": 4024,
      "gen": 4025,
      "Ġprofessionals": 4026,
      "Ġincred": 4027,
      "Ġharm": 4028,
      "ĠHot": 4029,
      "Ġdoub": 4030,
      "Ġcritical": 4031,
      "Ġtag": 4032,
      "Ġshape": 4033,
      "ĠSk": 4034,
      "Ġserver": 4035,
      "Ġhimself": 4036,
      "Ġactual": 4037,
      "Ġparties": 4038,
      "soft": 4039,
      "ij": 4040,
      "US": 4041,
      "itude": 4042,
      "olate": 4043,
      "ament": 4044,
      "ani": 4045,
      "Ġcamera": 4046,
      "unk": 4047,
      "standing": 4048,
      "ĠLear": 4049,
      "Ġopening": 4050,
      "vin": 4051,
      "Ġcounter": 4052,
      "Ġwhose": 4053,
      "Ġplaced": 4054,
      "aled": 4055,
      "Ġroof": 4056,
      "Ġprimary": 4057,
      "Ġtur": 4058,
      "ĠII": 4059,
      "PA": 4060,
      "00000": 4061,
      "Ġpopulation": 4062,
      "Ġsand": 4063,
      "Ġshared": 4064,
      "Ġshoot": 4065,
      "Ġadvanced": 4066,
      "Ġrefer": 4067,
      "ĠOffice": 4068,
      "ĠCourt": 4069,
      "ĠCr": 4070,
      "Ġcolors": 4071,
      "ĠJack": 4072,
      "pective": 4073,
      "Ġbalance": 4074,
      "Ġwelcome": 4075,
      "Ġpoor": 4076,
      "Ġmission": 4077,
      "Ġbuying": 4078,
      "Ġcolle": 4079,
      "It": 4080,
      "cape": 4081,
      "Ġmaintenance": 4082,
      "Ġmoved": 4083,
      "ĠLoc": 4084,
      "Ġdiscover": 4085,
      "Ġlisted": 4086,
      "mar": 4087,
      "ĠWashington": 4088,
      "ĠMo": 4089,
      "Ġprepared": 4090,
      "Ġstatement": 4091,
      "Ġhus": 4092,
      "ĠMet": 4093,
      "Ġpassion": 4094,
      "Ġexcl": 4095,
      "Ġcontains": 4096,
      "Ġproduced": 4097,
      "Ġfaith": 4098,
      "Ġcit": 4099,
      "ĠGreen": 4100,
      "Ġtransl": 4101,
      "Ġbreat": 4102,
      "Ġrelig": 4103,
      "ĠVis": 4104,
      "ĠWhether": 4105,
      "lying": 4106,
      "Ġcleaning": 4107,
      "tra": 4108,
      "Ġfinished": 4109,
      "MS": 4110,
      "Ġcourses": 4111,
      "ĠChurch": 4112,
      "Ġcentury": 4113,
      "Ġcapacity": 4114,
      "Ġpolice": 4115,
      "Ġmanufacturer": 4116,
      "Ġlearned": 4117,
      "Ġmicro": 4118,
      "Ġgarden": 4119,
      "roud": 4120,
      "Ġdeveloping": 4121,
      "Ġelements": 4122,
      "'.": 4123,
      "Ġtemperature": 4124,
      "Ġdump": 4125,
      "Ġrich": 4126,
      "Ġcommunities": 4127,
      "Ġfriendly": 4128,
      "ĠArch": 4129,
      "ĠBritish": 4130,
      "Ġprogress": 4131,
      "orrow": 4132,
      "ĠPeople": 4133,
      "Ġplants": 4134,
      "icking": 4135,
      "Ġproperties": 4136,
      "ĠDavid": 4137,
      "ĠEs": 4138,
      "lines": 4139,
      "yn": 4140,
      "Ġforce": 4141,
      "ĠPhot": 4142,
      "ĠWilliam": 4143,
      "bum": 4144,
      "Ġclasses": 4145,
      "active": 4146,
      "Ġkept": 4147,
      "Ġarchitect": 4148,
      "Ġpros": 4149,
      "cel": 4150,
      "Ġholiday": 4151,
      "Ġschedule": 4152,
      "Ġcompetition": 4153,
      "Ġdiet": 4154,
      "ĠCong": 4155,
      "inese": 4156,
      "ĠLast": 4157,
      "ico": 4158,
      "ero": 4159,
      "Ġadop": 4160,
      "ĠSocial": 4161,
      "enses": 4162,
      "iency": 4163,
      "ĠManagement": 4164,
      "ixt": 4165,
      "Ġdiscount": 4166,
      "ĠMonday": 4167,
      "ĠWord": 4168,
      "Ġfan": 4169,
      "Ġfactors": 4170,
      "Ġvirt": 4171,
      "Ġviews": 4172,
      "amin": 4173,
      "Ġhighlight": 4174,
      "Ġtalking": 4175,
      "Ġhaven": 4176,
      "osure": 4177,
      "Ġpray": 4178,
      "Ġpresented": 4179,
      "Ġmotor": 4180,
      "mp": 4181,
      "Ġfacilities": 4182,
      "Ġlimit": 4183,
      "Ġban": 4184,
      "Ġiniti": 4185,
      "ĠST": 4186,
      "Ġpeace": 4187,
      "ĠInstitute": 4188,
      "Ġmetal": 4189,
      "ommod": 4190,
      "estival": 4191,
      "Ġâ": 4192,
      "Ġestablish": 4193,
      "apter": 4194,
      "ales": 4195,
      "fast": 4196,
      "Ġbow": 4197,
      "Ġheavy": 4198,
      "Ġseeing": 4199,
      "Ġfashion": 4200,
      "ĠGeneral": 4201,
      "Ġcomments": 4202,
      "Ġpackage": 4203,
      "bu": 4204,
      "Ġcast": 4205,
      "ĠTake": 4206,
      "Ġexercise": 4207,
      "down": 4208,
      "ups": 4209,
      "ĠClass": 4210,
      "Ġkeeping": 4211,
      "Ġtesting": 4212,
      "ael": 4213,
      "Ġforms": 4214,
      "itors": 4215,
      "Ġstar": 4216,
      "pm": 4217,
      "Ġreference": 4218,
      "nding": 4219,
      "ĠCall": 4220,
      "iger": 4221,
      "Ġrooms": 4222,
      "Ġexplore": 4223,
      "Ġvisual": 4224,
      "Ġjobs": 4225,
      "rief": 4226,
      "Ġshopping": 4227,
      "ĠTex": 4228,
      "Ġsteel": 4229,
      "Ġcheap": 4230,
      "mark": 4231,
      "Ġnamed": 4232,
      "Ġwaste": 4233,
      "Ġquarter": 4234,
      "eds": 4235,
      "ĠYear": 4236,
      "Ġhelpful": 4237,
      "acing": 4238,
      "Ġwire": 4239,
      "Ġshot": 4240,
      "Ġsession": 4241,
      "Ġwife": 4242,
      "ĠSl": 4243,
      "ĠCare": 4244,
      "ĠTop": 4245,
      "Ġgain": 4246,
      "rehens": 4247,
      "âĢ²": 4248,
      "ĠThurs": 4249,
      "Ġspring": 4250,
      "rees": 4251,
      "works": 4252,
      "LE": 4253,
      "ĠSa": 4254,
      "ortunately": 4255,
      "enture": 4256,
      "Ġfish": 4257,
      "ĠHy": 4258,
      "rael": 4259,
      "Ġsmaller": 4260,
      "Ġnames": 4261,
      "Ġsto": 4262,
      "Ġcream": 4263,
      "ught": 4264,
      "Ġeight": 4265,
      "ady": 4266,
      "osing": 4267,
      "Ġmemory": 4268,
      "Ġvisitors": 4269,
      "Ġpractices": 4270,
      "Ġtechniques": 4271,
      "Ġsmooth": 4272,
      "text": 4273,
      "Ġvolunte": 4274,
      "Ġadding": 4275,
      "Ġexpensive": 4276,
      "Ġaudience": 4277,
      "Ġplenty": 4278,
      "Ġrepe": 4279,
      "):": 4280,
      "Ġbeg": 4281,
      "vision": 4282,
      "ÂŃ": 4283,
      "Ġcolour": 4284,
      "Ġevening": 4285,
      "Ġformat": 4286,
      "Ġfunds": 4287,
      "Ġselected": 4288,
      "Ġingred": 4289,
      "Ġcentral": 4290,
      "Ġoperation": 4291,
      "ĠEngine": 4292,
      "orial": 4293,
      "Ġforget": 4294,
      "Ġlinks": 4295,
      "ĠPaul": 4296,
      "Ġvoice": 4297,
      "Ġdesigns": 4298,
      "rey": 4299,
      "Ġarrange": 4300,
      "Ġhttp": 4301,
      "Ġice": 4302,
      "Ġpush": 4303,
      "Ġconference": 4304,
      "top": 4305,
      "fit": 4306,
      "Ġflu": 4307,
      "Ġadvance": 4308,
      "Ġfigure": 4309,
      "ĠSing": 4310,
      "raw": 4311,
      "Ġdang": 4312,
      "Ġveget": 4313,
      "ato": 4314,
      "Ġmer": 4315,
      "Ġrelevant": 4316,
      "box": 4317,
      "Ġgone": 4318,
      "ĠMal": 4319,
      "Ġbrain": 4320,
      "Ġguests": 4321,
      "za": 4322,
      "Ġremind": 4323,
      "Ġtheme": 4324,
      "Ġcouldn": 4325,
      "Ġfans": 4326,
      "ĠMary": 4327,
      "ocr": 4328,
      "Ġconnected": 4329,
      "actions": 4330,
      "sey": 4331,
      "Ġdecide": 4332,
      "Ġsitu": 4333,
      "Ġhusband": 4334,
      "isation": 4335,
      "Ġdrug": 4336,
      "Ġmulti": 4337,
      "Ġwat": 4338,
      "ĠLife": 4339,
      "Ġsustain": 4340,
      "Ġaccommod": 4341,
      "Ġnumerous": 4342,
      "Ġbrows": 4343,
      "icine": 4344,
      "Ġdied": 4345,
      "rem": 4346,
      "ĠUnder": 4347,
      "Ġdriver": 4348,
      "rical": 4349,
      "using": 4350,
      "Ġsurg": 4351,
      "Ġvision": 4352,
      "Ġcoverage": 4353,
      "Ġolder": 4354,
      "Ð¸": 4355,
      "Ġsources": 4356,
      "icies": 4357,
      "Ġtruth": 4358,
      "Ġdecisions": 4359,
      "Ġbeauty": 4360,
      "UR": 4361,
      "Ġchanging": 4362,
      "ellow": 4363,
      "ĠPR": 4364,
      "ĠBank": 4365,
      "!!!": 4366,
      "Ġcells": 4367,
      ".)": 4368,
      "ooper": 4369,
      "Ġtend": 4370,
      "Ġdirector": 4371,
      "Ġinstallation": 4372,
      "IP": 4373,
      "Ġoperations": 4374,
      "Ġran": 4375,
      "Ġgall": 4376,
      "olic": 4377,
      "ĠPlan": 4378,
      "ĠChinese": 4379,
      "Ġmedium": 4380,
      "ĠWater": 4381,
      "ĠLike": 4382,
      "Ġotherwise": 4383,
      "Ġdiam": 4384,
      "Ġagreement": 4385,
      "Ġproud": 4386,
      "ĠSur": 4387,
      "Ġstatus": 4388,
      "ĠJames": 4389,
      "ĠTrump": 4390,
      "ĠRock": 4391,
      "Ġscen": 4392,
      "ĠAnge": 4393,
      "Ġbiggest": 4394,
      "Ġimpl": 4395,
      "Ġir": 4396,
      "ishes": 4397,
      "Ġsector": 4398,
      "omet": 4399,
      "ĠSoc": 4400,
      "Ġfee": 4401,
      "Ġdocuments": 4402,
      "Ġinvestig": 4403,
      "Ġvideos": 4404,
      "Ġeconomy": 4405,
      "overy": 4406,
      "ĠBoth": 4407,
      "Ġsuff": 4408,
      "Ġseparate": 4409,
      "Ġmentioned": 4410,
      "Ġseven": 4411,
      "Ġfees": 4412,
      "Ġreality": 4413,
      "Ġdescribed": 4414,
      "ĠBay": 4415,
      "amm": 4416,
      "Ġrat": 4417,
      "Ġswitch": 4418,
      "ĠThursday": 4419,
      "Ġstation": 4420,
      "isl": 4421,
      "ĠWhere": 4422,
      "Ġlaunch": 4423,
      "ĠTwo": 4424,
      "hips": 4425,
      "Ġoperating": 4426,
      "Ġmist": 4427,
      "Ġstick": 4428,
      "ĠWho": 4429,
      "hop": 4430,
      "ago": 4431,
      "icon": 4432,
      "azon": 4433,
      "Ġalbum": 4434,
      "ĠRel": 4435,
      "Ġ?": 4436,
      "ĠWed": 4437,
      "Ġluck": 4438,
      "Ġpassed": 4439,
      "ĠCustom": 4440,
      "Ġwaiting": 4441,
      "Ġanti": 4442,
      "ĠMart": 4443,
      "Ġclassic": 4444,
      "Ġleader": 4445,
      "Ġmaximum": 4446,
      "ĠChristian": 4447,
      "imb": 4448,
      "free": 4449,
      "Ġrecip": 4450,
      "ĠEv": 4451,
      "Ġcalc": 4452,
      "Ġwrote": 4453,
      "ĠIts": 4454,
      "Ġmilitary": 4455,
      "arge": 4456,
      "Ġobv": 4457,
      "ĠPM": 4458,
      "Ġtaste": 4459,
      "ĠVol": 4460,
      "ĠIsrael": 4461,
      "ado": 4462,
      "Ġbill": 4463,
      "Ġbright": 4464,
      "ĠOpen": 4465,
      "Ġbecomes": 4466,
      "Ġencourage": 4467,
      "Ġcore": 4468,
      "Ġrare": 4469,
      "ĠĠ": 4470,
      "Ġresidents": 4471,
      "ĠEducation": 4472,
      "Ġmortgage": 4473,
      "Ġdirection": 4474,
      "Ġpsych": 4475,
      "ĠTues": 4476,
      "Ġworkers": 4477,
      "Ġclaims": 4478,
      "ĠTexas": 4479,
      "Ġwebsites": 4480,
      "ferences": 4481,
      "ĠJew": 4482,
      "Ġapproxim": 4483,
      "Ġconcent": 4484,
      "ĠEst": 4485,
      "Ġcontinued": 4486,
      "mail": 4487,
      "Ġfol": 4488,
      "ocolate": 4489,
      "ĠMag": 4490,
      "Ġvalid": 4491,
      "ĠAP": 4492,
      "ternal": 4493,
      "Ġselling": 4494,
      "Ġlose": 4495,
      "Ġdiagn": 4496,
      "Ġdisapp": 4497,
      "Ġbecoming": 4498,
      "Ġforeign": 4499,
      "ctors": 4500,
      "Ġmovement": 4501,
      "Ġcharacters": 4502,
      "Ġapplied": 4503,
      "ĠPower": 4504,
      "cket": 4505,
      "BC": 4506,
      "Ġsched": 4507,
      "Ġrecords": 4508,
      "Ġpolicies": 4509,
      "leg": 4510,
      "Ġfamous": 4511,
      "Ġalternative": 4512,
      "ĠBill": 4513,
      "ĠRoad": 4514,
      "Ġessay": 4515,
      "Ġfem": 4516,
      "Ġsea": 4517,
      "Ġcompar": 4518,
      "Ġcombination": 4519,
      "Ġsociety": 4520,
      "rupt": 4521,
      "Ġspect": 4522,
      "Ġunf": 4523,
      "Ġrob": 4524,
      "pet": 4525,
      "ĠNews": 4526,
      "craft": 4527,
      "TS": 4528,
      "Ġmap": 4529,
      "Ġrestaurant": 4530,
      "abilities": 4531,
      "itar": 4532,
      "Ġprovider": 4533,
      "Ġvan": 4534,
      "Ġdatab": 4535,
      "Ġthus": 4536,
      "Ġupgra": 4537,
      "Ġflat": 4538,
      "Ġpair": 4539,
      "Ġprocesses": 4540,
      "Ġhappens": 4541,
      "Ġperformed": 4542,
      "uable": 4543,
      "Ġcaused": 4544,
      "Ġmagn": 4545,
      "oma": 4546,
      "ĠOF": 4547,
      "ĠQue": 4548,
      "ĠBuild": 4549,
      "inct": 4550,
      "ĠLake": 4551,
      "umin": 4552,
      "Ġfocused": 4553,
      "Ġexcited": 4554,
      "Ġpump": 4555,
      "ception": 4556,
      "ym": 4557,
      "ĠElect": 4558,
      "ĠSun": 4559,
      "ervation": 4560,
      "Ġspending": 4561,
      "Ġconfig": 4562,
      "ĠBen": 4563,
      "ech": 4564,
      "aming": 4565,
      "Ġdoctor": 4566,
      "ented": 4567,
      "ĠCommission": 4568,
      "ĠScience": 4569,
      "Ġpleas": 4570,
      "ĠBre": 4571,
      "Ġshowing": 4572,
      "Ġtoward": 4573,
      "Ġteachers": 4574,
      "Ġmajority": 4575,
      "Ġestim": 4576,
      "Ġbought": 4577,
      "asy": 4578,
      "Ġmeant": 4579,
      "ĠTO": 4580,
      "Ġcompl": 4581,
      "Ġdur": 4582,
      "ĠFore": 4583,
      "apers": 4584,
      "Ġdisp": 4585,
      "Ġbon": 4586,
      "Ġsnow": 4587,
      "ĠRich": 4588,
      "sp": 4589,
      "ĠGlo": 4590,
      "Ġcontinues": 4591,
      "ĠDirector": 4592,
      "NA": 4593,
      "Ġminimum": 4594,
      "Ġindependent": 4595,
      "ĠSum": 4596,
      "Ġremains": 4597,
      "Ġartist": 4598,
      "Ġwhatever": 4599,
      "ĠLo": 4600,
      "Ġcloud": 4601,
      "ĠChild": 4602,
      "ĠID": 4603,
      "Ġrecipe": 4604,
      "IA": 4605,
      "Ġhappened": 4606,
      "Ġ=": 4607,
      "ordin": 4608,
      "Ġsounds": 4609,
      "iled": 4610,
      "Ġthousands": 4611,
      "ĠTheir": 4612,
      "Ġlux": 4613,
      "Ġscore": 4614,
      "ka": 4615,
      "ĠApple": 4616,
      "Ġinstalled": 4617,
      "Ġeating": 4618,
      "Ġsets": 4619,
      "ĠProfess": 4620,
      "ĠCam": 4621,
      "ifts": 4622,
      "ĠSecurity": 4623,
      "Ġcorner": 4624,
      "IM": 4625,
      "vere": 4626,
      "ĠLord": 4627,
      "ĠSil": 4628,
      "Ġstreet": 4629,
      "Ġcorporate": 4630,
      "Ġmanager": 4631,
      "iliar": 4632,
      "Ġsav": 4633,
      "Ġnovel": 4634,
      "Ġteacher": 4635,
      "icken": 4636,
      "Ġexpress": 4637,
      "Ġdinner": 4638,
      "Ġoutdoor": 4639,
      "Ġdecl": 4640,
      "inger": 4641,
      "nect": 4642,
      "ae": 4643,
      "ĠMount": 4644,
      "Ġminute": 4645,
      "ructure": 4646,
      "emporary": 4647,
      "Ġfold": 4648,
      "Ġfabric": 4649,
      "Ġtempl": 4650,
      "ads": 4651,
      "Ġworry": 4652,
      "ĠJer": 4653,
      "Ġassistance": 4654,
      "anta": 4655,
      "unning": 4656,
      "Ġmarkets": 4657,
      "Ġopened": 4658,
      "lled": 4659,
      "Ġadapt": 4660,
      "Ġsuitable": 4661,
      "ĠHel": 4662,
      "Ġpresence": 4663,
      "Ġextensive": 4664,
      "Ġpanel": 4665,
      "aven": 4666,
      "bl": 4667,
      "Ġleaves": 4668,
      "ona": 4669,
      "ĠFam": 4670,
      "ĠKeep": 4671,
      "ĠCamp": 4672,
      "www": 4673,
      "Ġsenior": 4674,
      "Ġstarts": 4675,
      "Ġanimals": 4676,
      "ĠPublic": 4677,
      "ĠTuesday": 4678,
      "Ġfederal": 4679,
      "Ġdistance": 4680,
      "alt": 4681,
      "ĠWork": 4682,
      "Ġartists": 4683,
      "Ġachie": 4684,
      "Ġpractical": 4685,
      "Ġapart": 4686,
      "ĠUSA": 4687,
      "vention": 4688,
      "Ġsch": 4689,
      "Ġgeneration": 4690,
      "ĠBig": 4691,
      "Ġcomprehens": 4692,
      "uled": 4693,
      "anted": 4694,
      "Ġrestrict": 4695,
      "Ġexciting": 4696,
      "iration": 4697,
      "resp": 4698,
      "Ġfantastic": 4699,
      "icate": 4700,
      "Ġsam": 4701,
      "ĠAfrica": 4702,
      "Ġprincip": 4703,
      "Ġcalls": 4704,
      "yer": 4705,
      "omb": 4706,
      "Ġspecies": 4707,
      "ĠRiver": 4708,
      "omin": 4709,
      "ĠBefore": 4710,
      "OW": 4711,
      "pid": 4712,
      "mal": 4713,
      "Ġleaving": 4714,
      "Ġunits": 4715,
      "ĠStr": 4716,
      "ĠMiss": 4717,
      "Ġbrother": 4718,
      "Ġcomponents": 4719,
      "ĠMot": 4720,
      "Ġprocessing": 4721,
      "ĠSam": 4722,
      "ĠMaster": 4723,
      "Ġquant": 4724,
      "tion": 4725,
      "Ġbul": 4726,
      "cean": 4727,
      "Ġposts": 4728,
      "Ġ>": 4729,
      "Ġaffordable": 4730,
      "sing": 4731,
      "Ġsouth": 4732,
      "illa": 4733,
      "ĠIsland": 4734,
      "Ġtypically": 4735,
      "Ġconcerns": 4736,
      "Ġtopic": 4737,
      "Ġmanaged": 4738,
      "Ġwww": 4739,
      "Ġbeach": 4740,
      "Ġawesome": 4741,
      "Ġfilled": 4742,
      "Ġdaughter": 4743,
      "ĠNext": 4744,
      "Ġproperly": 4745,
      "Ġaudio": 4746,
      "ipl": 4747,
      "ette": 4748,
      "Ġsecret": 4749,
      "Ġeth": 4750,
      "Ġdetailed": 4751,
      "Ġrain": 4752,
      "Ġbattery": 4753,
      "Ġ@": 4754,
      "Ġdepartment": 4755,
      "IV": 4756,
      "ĠSpecial": 4757,
      "ĠAM": 4758,
      "ĠPet": 4759,
      "ĠHist": 4760,
      "Ġagency": 4761,
      "Ġrecommended": 4762,
      "Ġlock": 4763,
      "ota": 4764,
      "Ġclearly": 4765,
      "ĠDri": 4766,
      "hi": 4767,
      "Ġmanner": 4768,
      "Ġdu": 4769,
      "Ġjump": 4770,
      "Ġguess": 4771,
      "Ġleadership": 4772,
      "miss": 4773,
      "Ġenjoyed": 4774,
      "Ġupdated": 4775,
      "Ġdram": 4776,
      "Ġwouldn": 4777,
      "Ġbrings": 4778,
      "Ġruns": 4779,
      "ĠWood": 4780,
      "Ġcasino": 4781,
      "Ġinjury": 4782,
      "Ġabsolutely": 4783,
      "Ġdut": 4784,
      "ails": 4785,
      "Ġthoughts": 4786,
      "CC": 4787,
      "Ġenvironmental": 4788,
      "!\"": 4789,
      "Ġdesk": 4790,
      "DA": 4791,
      "Ġpal": 4792,
      "ĠWall": 4793,
      "Ġanc": 4794,
      "ĠFoundation": 4795,
      "iers": 4796,
      "ĠDevelopment": 4797,
      "Ġrelationships": 4798,
      "ĠMill": 4799,
      "Ġder": 4800,
      "ĠBack": 4801,
      "Ġprepare": 4802,
      "ĠWednes": 4803,
      "icians": 4804,
      "ĠPay": 4805,
      "ĠMain": 4806,
      "obile": 4807,
      "Ġstrategies": 4808,
      "Ġwilling": 4809,
      "Ġfacility": 4810,
      "Ġscale": 4811,
      "Ġsym": 4812,
      "ĠEngland": 4813,
      "Ġcabin": 4814,
      "gal": 4815,
      "Ġpresident": 4816,
      "ander": 4817,
      "Ġtransform": 4818,
      "gment": 4819,
      "Ġvehicles": 4820,
      "Ġtow": 4821,
      "essions": 4822,
      "Ġlighting": 4823,
      "Ġexpertise": 4824,
      "ror": 4825,
      "ĠRepublic": 4826,
      "Ġshowed": 4827,
      "ifying": 4828,
      "ano": 4829,
      "Ġchemical": 4830,
      "ĠDownload": 4831,
      "Ġunless": 4832,
      "Ġallowing": 4833,
      "Ġpredict": 4834,
      "Ġdynam": 4835,
      "Ġegg": 4836,
      "Ġeffic": 4837,
      "Ġship": 4838,
      "Ġregistered": 4839,
      "ston": 4840,
      "bed": 4841,
      "Ġerror": 4842,
      "ĠStar": 4843,
      "Ġspl": 4844,
      "ĠOnline": 4845,
      "ĠLight": 4846,
      "den": 4847,
      "Ġcris": 4848,
      "going": 4849,
      "Ġautomatically": 4850,
      "Ġcategory": 4851,
      "Ġcatch": 4852,
      "ĠAS": 4853,
      "Ġedge": 4854,
      "Ġserving": 4855,
      "bour": 4856,
      "Ch": 4857,
      "point": 4858,
      "Ġargu": 4859,
      "eed": 4860,
      "Ġearth": 4861,
      "Ġdoors": 4862,
      "Ġton": 4863,
      "Ġinput": 4864,
      "Ġstores": 4865,
      "ĠMichael": 4866,
      "Ġevalu": 4867,
      "Ġbusy": 4868,
      "Ġvolume": 4869,
      "Ġslightly": 4870,
      "osition": 4871,
      "outhern": 4872,
      "ĠProject": 4873,
      "Ġdebt": 4874,
      "Ġment": 4875,
      "Ġshipping": 4876,
      "Ġimportance": 4877,
      "Ġdiscussion": 4878,
      "ÑĤ": 4879,
      "osen": 4880,
      "ĠData": 4881,
      "ĠThrough": 4882,
      "ĠHum": 4883,
      "ĠExp": 4884,
      "ĠPhil": 4885,
      "men": 4886,
      "Ġhonest": 4887,
      "Ġgoods": 4888,
      "Ġenhance": 4889,
      "Ġregister": 4890,
      "Ġdistrict": 4891,
      "ĠDet": 4892,
      "Ġacademic": 4893,
      "Ġapproximately": 4894,
      "ĠCert": 4895,
      "Ġoutput": 4896,
      "Ġclosed": 4897,
      "Ġknows": 4898,
      "Ġpreviously": 4899,
      "ĠSociety": 4900,
      "Ġride": 4901,
      "itness": 4902,
      "Ġwalking": 4903,
      "nel": 4904,
      "ĠSol": 4905,
      "Ġclimate": 4906,
      "Ġlocations": 4907,
      "Ġspecifically": 4908,
      "Ġresponsibility": 4909,
      "Ġleads": 4910,
      "ĠBet": 4911,
      "Ġcitiz": 4912,
      "Ġdepos": 4913,
      "gn": 4914,
      "osis": 4915,
      "tered": 4916,
      "cles": 4917,
      "Ġcities": 4918,
      "paper": 4919,
      "Ġtrees": 4920,
      "Ġappears": 4921,
      "Ġpromote": 4922,
      "CA": 4923,
      "Ġhyd": 4924,
      "othes": 4925,
      "ĠInformation": 4926,
      "Ġlabor": 4927,
      "Ġjoint": 4928,
      "Ġinternal": 4929,
      "OP": 4930,
      "onds": 4931,
      "Ġmenu": 4932,
      "ĠCommunity": 4933,
      "night": 4934,
      "rian": 4935,
      "ĠTy": 4936,
      "no": 4937,
      "Ġhospital": 4938,
      "Ġplastic": 4939,
      "Ġgirl": 4940,
      "Ġdining": 4941,
      "uries": 4942,
      "Ġcultural": 4943,
      "Ġwatching": 4944,
      "Ġillustr": 4945,
      "Ġissued": 4946,
      "Ġlaun": 4947,
      "Ġsample": 4948,
      "ĠTime": 4949,
      "Ġsugar": 4950,
      "Ġphotograph": 4951,
      "Ġreliable": 4952,
      "uce": 4953,
      "Ġthick": 4954,
      "estic": 4955,
      "ĠGerman": 4956,
      "ĠWednesday": 4957,
      "ivered": 4958,
      "Ġsquare": 4959,
      "ĠBlue": 4960,
      "Ġcentre": 4961,
      "Ġfuel": 4962,
      "ĠJour": 4963,
      "Ġingredients": 4964,
      "ĠEnter": 4965,
      "Ġwindows": 4966,
      "Ġcombined": 4967,
      "ĠNote": 4968,
      "ĠContact": 4969,
      "Ġlovely": 4970,
      "Ġhousing": 4971,
      "Ġaccompl": 4972,
      "Ġactions": 4973,
      "Ġinterior": 4974,
      "',": 4975,
      "Ġmotiv": 4976,
      "ĠCap": 4977,
      "ĠMark": 4978,
      "Ġcart": 4979,
      "Ġcivil": 4980,
      "Ġhom": 4981,
      "ĠFire": 4982,
      "Ġinnovative": 4983,
      "Ġtechnologies": 4984,
      "ĠRoy": 4985,
      "ĠAND": 4986,
      "Ġreached": 4987,
      "Ġseek": 4988,
      "ĠAmazon": 4989,
      "Ġfeedback": 4990,
      "unction": 4991,
      "Ġaspects": 4992,
      "Ġchoices": 4993,
      "Ġdrink": 4994,
      "ĠMicrosoft": 4995,
      "ller": 4996,
      "ĠMil": 4997,
      "ĠRob": 4998,
      "Ġindustrial": 4999,
      "ĠCard": 5000,
      "Ġrule": 5001,
      "ĠThose": 5002,
      "Ġign": 5003,
      "Ġstone": 5004,
      "ĠStart": 5005,
      "ĠCommit": 5006,
      "Ġvary": 5007,
      "ĠExper": 5008,
      "LC": 5009,
      "Ġshower": 5010,
      "Ġinstance": 5011,
      "ĠMad": 5012,
      "Ġarm": 5013,
      "outs": 5014,
      "Ġparking": 5015,
      "aser": 5016,
      "Ġlunch": 5017,
      "Ġbehavior": 5018,
      "ĠGovernment": 5019,
      "Ġven": 5020,
      "ĠBeach": 5021,
      "poses": 5022,
      "Ġsem": 5023,
      "ugg": 5024,
      "antic": 5025,
      "prise": 5026,
      "Ġputting": 5027,
      "ĠValley": 5028,
      "ĠUN": 5029,
      "reek": 5030,
      "ĠCentral": 5031,
      "Ġframe": 5032,
      "Ġcup": 5033,
      "known": 5034,
      "ĠSto": 5035,
      "Ġmode": 5036,
      "Ġneighbor": 5037,
      "iders": 5038,
      "Ġconstruct": 5039,
      "Ġnegative": 5040,
      "ĠFood": 5041,
      "Ġappeal": 5042,
      "Ġseat": 5043,
      "Ġkid": 5044,
      "Ã¡": 5045,
      "Ġchair": 5046,
      "Ġourselves": 5047,
      "hab": 5048,
      "rete": 5049,
      "ĠTor": 5050,
      "Ġjournal": 5051,
      "Ġlisten": 5052,
      "Ġinfo": 5053,
      "Ġdial": 5054,
      "Ġnorth": 5055,
      "ĠGrand": 5056,
      "jo": 5057,
      "ĠThom": 5058,
      "Ġprofit": 5059,
      "Ġdepending": 5060,
      "Ġattor": 5061,
      "Ġpremium": 5062,
      "eria": 5063,
      "Ġlaws": 5064,
      "Ġdie": 5065,
      "ĠTur": 5066,
      "Ġexchange": 5067,
      "Ð½": 5068,
      "Ġdelicious": 5069,
      "ection": 5070,
      "arp": 5071,
      "oles": 5072,
      "Ġring": 5073,
      "Ġteach": 5074,
      "Ġemergency": 5075,
      "Ġterr": 5076,
      "Ġmostly": 5077,
      "ĠLead": 5078,
      "ĠMach": 5079,
      "Ġdetect": 5080,
      "fol": 5081,
      "hent": 5082,
      "arrant": 5083,
      "igence": 5084,
      "Ġprot": 5085,
      "Ġcontext": 5086,
      "log": 5087,
      "Ġjoined": 5088,
      "à¤": 5089,
      "Ġaccident": 5090,
      "ampions": 5091,
      "Ġarticles": 5092,
      "DF": 5093,
      "ya": 5094,
      "ĠProduct": 5095,
      "Ġexplain": 5096,
      "RA": 5097,
      "rd": 5098,
      "ĠMex": 5099,
      "azine": 5100,
      "ĠVe": 5101,
      "oe": 5102,
      "Ġbuildings": 5103,
      "pan": 5104,
      "friend": 5105,
      "Ġbird": 5106,
      "Ġì": 5107,
      "hone": 5108,
      "oration": 5109,
      "Ġagent": 5110,
      "Ġboy": 5111,
      "Ġtrail": 5112,
      "Ġapproved": 5113,
      "ÑĢ": 5114,
      "orthern": 5115,
      "Ġsport": 5116,
      "Ġfunctions": 5117,
      "water": 5118,
      "Ġpoll": 5119,
      "hetic": 5120,
      "ipp": 5121,
      "Ġbrands": 5122,
      "Ġproceed": 5123,
      "Ġdespite": 5124,
      "Ġfamiliar": 5125,
      "Ġpurposes": 5126,
      "Ġfavour": 5127,
      "ario": 5128,
      "ĠTem": 5129,
      "Ġrub": 5130,
      "rier": 5131,
      "Ġprofile": 5132,
      "inding": 5133,
      "Ġbike": 5134,
      "iance": 5135,
      "never": 5136,
      "ĠDoes": 5137,
      "BA": 5138,
      "olars": 5139,
      "ulty": 5140,
      "Ġinspired": 5141,
      "Ġflowers": 5142,
      "mes": 5143,
      "apos": 5144,
      "ĠVir": 5145,
      "Ġcomprehensive": 5146,
      "gl": 5147,
      "Ġfruit": 5148,
      "Ġchocolate": 5149,
      "ĠAddition": 5150,
      "Ġprocedure": 5151,
      "Ġraised": 5152,
      "ĠOnly": 5153,
      "Ġanywhere": 5154,
      "zen": 5155,
      "Ġguys": 5156,
      "ĠMusic": 5157,
      "Ġsequ": 5158,
      "Ġopinion": 5159,
      "ga": 5160,
      "ĠMel": 5161,
      "ĠDistrict": 5162,
      "Ġbrief": 5163,
      "ilit": 5164,
      "Ġenable": 5165,
      "Ġvaluable": 5166,
      "Ġtickets": 5167,
      "Ġguarantee": 5168,
      "noon": 5169,
      "ĠParty": 5170,
      "Ġdelivered": 5171,
      "fin": 5172,
      "Ġsolar": 5173,
      "Ġcircum": 5174,
      "Ġtotally": 5175,
      "ĠLong": 5176,
      "Wh": 5177,
      "rab": 5178,
      "Ġasking": 5179,
      "cont": 5180,
      "Ġsurvey": 5181,
      "td": 5182,
      "Ġquot": 5183,
      "Ġcommitted": 5184,
      "Ġsurgery": 5185,
      "Ġassemb": 5186,
      "Ġproviders": 5187,
      "how": 5188,
      "rastructure": 5189,
      "Ġadults": 5190,
      "ifications": 5191,
      "ĠTechnology": 5192,
      "net": 5193,
      "Ġsympt": 5194,
      "ĠLou": 5195,
      "Ñģ": 5196,
      "een": 5197,
      "ĠPress": 5198,
      "Ġdatabase": 5199,
      "Ġnotes": 5200,
      "Ġrapid": 5201,
      "ki": 5202,
      "ĠUsing": 5203,
      "Ġuniversity": 5204,
      "Ġemp": 5205,
      "Ġpossibly": 5206,
      "Ġfields": 5207,
      "ĠTwitter": 5208,
      "Ġremoved": 5209,
      "atin": 5210,
      "Ġcrow": 5211,
      "ola": 5212,
      "ĠStep": 5213,
      "ĠList": 5214,
      "Ġradio": 5215,
      "Ġap": 5216,
      "Ġelement": 5217,
      "Ġlights": 5218,
      "ĠNOT": 5219,
      "Ġlibrary": 5220,
      "Ġcompetitive": 5221,
      "ĠGermany": 5222,
      "Ġresource": 5223,
      "ĠAL": 5224,
      "reens": 5225,
      "ĠConst": 5226,
      "Ġended": 5227,
      "ĠÃ": 5228,
      "Ġadvertising": 5229,
      "Ġshap": 5230,
      "Ġauto": 5231,
      "Ġsalt": 5232,
      "CH": 5233,
      "Ġvote": 5234,
      "oga": 5235,
      "ĠMatt": 5236,
      "Ġeventually": 5237,
      "ĠColor": 5238,
      "Ġadministration": 5239,
      "Ġnor": 5240,
      "Ġaid": 5241,
      "BS": 5242,
      "eared": 5243,
      "Ġmental": 5244,
      "Ġconfidence": 5245,
      "oor": 5246,
      "ĠMuseum": 5247,
      "Ġdecre": 5248,
      "Ġeducational": 5249,
      "Ġemployee": 5250,
      "Ġoccup": 5251,
      "Ġreturned": 5252,
      "Ġthread": 5253,
      "Ġseconds": 5254,
      "iner": 5255,
      "ĠMer": 5256,
      "ĠMass": 5257,
      "ograp": 5258,
      "itz": 5259,
      "ĠAlex": 5260,
      "ĠYOU": 5261,
      "cohol": 5262,
      "Ġanimal": 5263,
      "Ġthrow": 5264,
      "Ġdish": 5265,
      "Ġmeasures": 5266,
      "Ġsongs": 5267,
      "OD": 5268,
      "Ġprotein": 5269,
      "Ġfunding": 5270,
      "cap": 5271,
      "estyle": 5272,
      "Ġfaster": 5273,
      "Ġdogs": 5274,
      "Ġreput": 5275,
      "ucle": 5276,
      "Ġcrus": 5277,
      "ĠAcadem": 5278,
      "ront": 5279,
      "Ġupdates": 5280,
      "Ġtrial": 5281,
      "Ġvisiting": 5282,
      "Ġaccounts": 5283,
      "Ġacid": 5284,
      "ĠTeam": 5285,
      "ĠFrance": 5286,
      "Ġmine": 5287,
      "Ġgather": 5288,
      "Ġowned": 5289,
      "ĠBer": 5290,
      "Ġcoast": 5291,
      "life": 5292,
      "Ġelimin": 5293,
      "ĠCentre": 5294,
      "Ġsizes": 5295,
      "Ġfle": 5296,
      "ĠDiv": 5297,
      "alls": 5298,
      "equ": 5299,
      "rs": 5300,
      "ĠDa": 5301,
      "Ġbrown": 5302,
      "Ġlegisl": 5303,
      "Ġintroduced": 5304,
      "ĠSet": 5305,
      "Ġsymb": 5306,
      "ENT": 5307,
      "mosp": 5308,
      "Ġtun": 5309,
      "ĠSen": 5310,
      "ĠHD": 5311,
      "liance": 5312,
      "Ġsettings": 5313,
      "ĠReview": 5314,
      "Ġtast": 5315,
      "Ġdomain": 5316,
      "Ġpin": 5317,
      "ĠAndroid": 5318,
      "Ġpurchased": 5319,
      "adian": 5320,
      "Ġimproved": 5321,
      "Ñĸ": 5322,
      "Ġbeat": 5323,
      "ĠDi": 5324,
      "Ġcooking": 5325,
      "ĠBas": 5326,
      "ĠStand": 5327,
      "Ġeffectively": 5328,
      "Ġrestaurants": 5329,
      "Ġwinning": 5330,
      "Ġholding": 5331,
      "Ġlayer": 5332,
      "Ġdeals": 5333,
      "ician": 5334,
      "ĠReal": 5335,
      "ĠJapanese": 5336,
      "list": 5337,
      "agra": 5338,
      "ĠChic": 5339,
      "Ġdiscovered": 5340,
      "umber": 5341,
      "ef": 5342,
      "Ġgun": 5343,
      "olly": 5344,
      "ricult": 5345,
      "Ġmanual": 5346,
      "Ġflight": 5347,
      "Ġlived": 5348,
      "Ġmonit": 5349,
      "Ġscene": 5350,
      "Ġlicense": 5351,
      "Ġspo": 5352,
      "Ġmonthly": 5353,
      "Ġinfluence": 5354,
      "Ġliqu": 5355,
      "Ġinterests": 5356,
      "Ġtight": 5357,
      "ĠIde": 5358,
      "Ġscript": 5359,
      "IR": 5360,
      "xy": 5361,
      "ĠTom": 5362,
      "Ġentertain": 5363,
      "Ġguest": 5364,
      "Ġexamples": 5365,
      "win": 5366,
      "Ġyouth": 5367,
      "Ġapps": 5368,
      "oval": 5369,
      "Ġreplacement": 5370,
      "ĠIndust": 5371,
      "cious": 5372,
      "Ġweak": 5373,
      "Ġer": 5374,
      "Ġbutter": 5375,
      "rag": 5376,
      "Ġmissing": 5377,
      "urban": 5378,
      "Ġthr": 5379,
      "Ġannounce": 5380,
      "roy": 5381,
      "ste": 5382,
      "pected": 5383,
      "SS": 5384,
      "Ġdim": 5385,
      "Ġrental": 5386,
      "Ġobl": 5387,
      "orough": 5388,
      "Ġshut": 5389,
      "ĠMedical": 5390,
      "rome": 5391,
      "Ġhar": 5392,
      "Ġreduced": 5393,
      "Ġtherapy": 5394,
      "ĠBur": 5395,
      "ĠDig": 5396,
      "lla": 5397,
      "Ġcovers": 5398,
      "what": 5399,
      "Ġmeal": 5400,
      "ĠCas": 5401,
      "Ġmessages": 5402,
      "Ġparticipants": 5403,
      "ĠCommittee": 5404,
      "rics": 5405,
      "ĠRa": 5406,
      "Ġsignificantly": 5407,
      "Ġconsumers": 5408,
      "Ġdance": 5409,
      "Ġorganic": 5410,
      "ĠOrgan": 5411,
      "ala": 5412,
      "Ġrise": 5413,
      "Ġraise": 5414,
      "Ġfeels": 5415,
      "Ġhouses": 5416,
      "Ġcalling": 5417,
      "Ðł": 5418,
      "Ġnav": 5419,
      "add": 5420,
      "Ġcommand": 5421,
      "met": 5422,
      "Ġnurs": 5423,
      "ĠNor": 5424,
      "Ġresearc": 5425,
      "Ġoccasion": 5426,
      "ini": 5427,
      "ĠFollow": 5428,
      "Ġsupported": 5429,
      "ria": 5430,
      "ensions": 5431,
      "Ġsimpl": 5432,
      "anish": 5433,
      "odies": 5434,
      "akers": 5435,
      "ĠMaybe": 5436,
      "ĠCD": 5437,
      "Ġafternoon": 5438,
      "Ġfactor": 5439,
      "Ġremote": 5440,
      "Ġsitting": 5441,
      "ĠHill": 5442,
      "Ġsupplies": 5443,
      "Ġintell": 5444,
      "lor": 5445,
      "Ġtail": 5446,
      "Ġhire": 5447,
      "Ġchosen": 5448,
      "Ġcommitment": 5449,
      "ita": 5450,
      "ĠSP": 5451,
      "ĠSearch": 5452,
      "Ġcomplic": 5453,
      "Ġmanufacturing": 5454,
      "Ġplug": 5455,
      "athe": 5456,
      "igr": 5457,
      "ums": 5458,
      "Ġresolution": 5459,
      "Ġbreakfast": 5460,
      "Ġju": 5461,
      "Ġphil": 5462,
      "Ġburn": 5463,
      "ĠGen": 5464,
      "ĠTherefore": 5465,
      "Ġpresentation": 5466,
      "Ġadministr": 5467,
      "Ġconvenient": 5468,
      "ĠProv": 5469,
      "ĠShow": 5470,
      "Ġappreciate": 5471,
      "ĠInvest": 5472,
      "Ġreaders": 5473,
      "Ġperfectly": 5474,
      "Ġpainting": 5475,
      "Ġtests": 5476,
      "Ġiron": 5477,
      "ĠTest": 5478,
      "Ġrealize": 5479,
      "Ġconfirm": 5480,
      "alog": 5481,
      "Ġconflic": 5482,
      "elines": 5483,
      "Ġ^": 5484,
      "ĠFurther": 5485,
      "Ġamb": 5486,
      "Ġcarefully": 5487,
      "ĠHi": 5488,
      "Ġtrading": 5489,
      "Ġdesire": 5490,
      "Ġswim": 5491,
      "Ġseeking": 5492,
      "idden": 5493,
      "Ġprocedures": 5494,
      "TA": 5495,
      "ĠAdv": 5496,
      "Ġboost": 5497,
      "Ġrot": 5498,
      "Ġregularly": 5499,
      "Ġfailure": 5500,
      "LA": 5501,
      "ownt": 5502,
      "ĠHol": 5503,
      "ĠOR": 5504,
      "Ġtruck": 5505,
      "ĠAtt": 5506,
      "Ġsides": 5507,
      "Ġsurrounding": 5508,
      "Ġconsumer": 5509,
      "Ġlicens": 5510,
      "ev": 5511,
      "etime": 5512,
      "ĠLim": 5513,
      "ĠBi": 5514,
      "Ġperspective": 5515,
      "prene": 5516,
      "ĠPlus": 5517,
      "Ġcutting": 5518,
      "Ġseemed": 5519,
      "Ġreb": 5520,
      "Ġsupporting": 5521,
      "Ġpaying": 5522,
      "ĠJournal": 5523,
      "bre": 5524,
      "rain": 5525,
      "esterday": 5526,
      "Ġsigned": 5527,
      "ĠVict": 5528,
      "Ġdoubt": 5529,
      "Ġelectronic": 5530,
      "Ġcable": 5531,
      "amic": 5532,
      "Ġatmosp": 5533,
      "Ġhistorical": 5534,
      "Ġdollars": 5535,
      "ĠPerson": 5536,
      "ĠOld": 5537,
      "Ġunivers": 5538,
      "iveness": 5539,
      "Ġadvis": 5540,
      "Ġglad": 5541,
      "Ġhousehold": 5542,
      "ĠAtl": 5543,
      "Ġbringing": 5544,
      "Ġepis": 5545,
      "eper": 5546,
      "alian": 5547,
      "ĠWestern": 5548,
      "ĠInstead": 5549,
      "rim": 5550,
      "Ġdecades": 5551,
      "Ġsignal": 5552,
      "Ġparticipate": 5553,
      "IF": 5554,
      "Ġchart": 5555,
      "Ġagg": 5556,
      "Ġfixed": 5557,
      "Ġwhom": 5558,
      "aught": 5559,
      "Ġec": 5560,
      "Ġappearance": 5561,
      "ĠHam": 5562,
      "Ġunc": 5563,
      "aturing": 5564,
      "Ġrevenue": 5565,
      "Ġstret": 5566,
      "ibilities": 5567,
      "kin": 5568,
      "ĠSqu": 5569,
      "ĠInte": 5570,
      "rition": 5571,
      "Ġhun": 5572,
      "ially": 5573,
      "phas": 5574,
      "loc": 5575,
      "while": 5576,
      "Ġforg": 5577,
      "Ġhearing": 5578,
      "Ġboat": 5579,
      "Ġkinds": 5580,
      "Ġrecovery": 5581,
      "with": 5582,
      "ĠFil": 5583,
      "Ġgirls": 5584,
      "ĠAfrican": 5585,
      "ĠFamily": 5586,
      "Ġben": 5587,
      "Ġpoly": 5588,
      "Ġcharges": 5589,
      "Ġinfrastructure": 5590,
      "Ġtasks": 5591,
      "Ġgreatest": 5592,
      "Ġcauses": 5593,
      "dem": 5594,
      "fa": 5595,
      "Ġintended": 5596,
      "reprene": 5597,
      "Ġbound": 5598,
      "Ġsaving": 5599,
      "Ġaccurate": 5600,
      "Ġcircumst": 5601,
      "eries": 5602,
      "ĠAward": 5603,
      "Ġfoods": 5604,
      "Ġinstructions": 5605,
      "Ġhundreds": 5606,
      "lets": 5607,
      "ĠBrown": 5608,
      "Ġwheel": 5609,
      "Ġsole": 5610,
      "UT": 5611,
      "Ġengineering": 5612,
      "ĠRE": 5613,
      "Ġclinical": 5614,
      "ĠWal": 5615,
      "ĠRad": 5616,
      "Ġassum": 5617,
      "Ġregistration": 5618,
      "ĠView": 5619,
      "Ġgrade": 5620,
      "Ġsurf": 5621,
      "Ġconversation": 5622,
      "ĠSand": 5623,
      "Ġpatterns": 5624,
      "ĠCarol": 5625,
      "ius": 5626,
      "berg": 5627,
      "Ġofficials": 5628,
      "Ġfo": 5629,
      "Ġprepar": 5630,
      "ĠArts": 5631,
      "ĠSometimes": 5632,
      "Ġefficiency": 5633,
      "Ġremaining": 5634,
      "Ġsigns": 5635,
      "Ġproposed": 5636,
      "orter": 5637,
      "ĠPan": 5638,
      "Ġorders": 5639,
      "Ġcoup": 5640,
      "Ġlaunched": 5641,
      "Ġpayments": 5642,
      "ĠSecond": 5643,
      "ĠNetwork": 5644,
      "Ġcreation": 5645,
      "Ġdetermined": 5646,
      "Ġwarrant": 5647,
      "ĠAccess": 5648,
      "ĠExt": 5649,
      "Ġconsidering": 5650,
      "Ġaccepted": 5651,
      "Ġfulf": 5652,
      "Ġyes": 5653,
      "Ġbelong": 5654,
      "ulous": 5655,
      "Ġshares": 5656,
      "Ġnoted": 5657,
      "ensity": 5658,
      "ĠON": 5659,
      "ĠCP": 5660,
      "ĠProte": 5661,
      "Ġminor": 5662,
      "Ġknowing": 5663,
      "ua": 5664,
      "Ġtables": 5665,
      "Ġquiet": 5666,
      "Ġfilter": 5667,
      "ĠHaving": 5668,
      "ĠEU": 5669,
      "Ġcorresp": 5670,
      "Ġchannel": 5671,
      "Ġsymptoms": 5672,
      "ĠCA": 5673,
      "ĠCat": 5674,
      "ĠHand": 5675,
      "eless": 5676,
      "ĠWhich": 5677,
      "ĠGeorge": 5678,
      "Ġtea": 5679,
      "Ġagencies": 5680,
      "ĠUnion": 5681,
      "ĠGlobal": 5682,
      "inder": 5683,
      "rum": 5684,
      "Ġupload": 5685,
      "yal": 5686,
      "Ġconsequ": 5687,
      "Ġloans": 5688,
      "ĠWel": 5689,
      "Ġvit": 5690,
      "Ġdrivers": 5691,
      "Ġdegrees": 5692,
      "edy": 5693,
      "ĠVery": 5694,
      "Ġidentified": 5695,
      "Ġcarried": 5696,
      "iors": 5697,
      "Ġpure": 5698,
      "Ġstated": 5699,
      "which": 5700,
      "Ġlabel": 5701,
      "Ġsessions": 5702,
      "erves": 5703,
      "Ġspaces": 5704,
      "This": 5705,
      "ĠTable": 5706,
      "ĠHope": 5707,
      "ificate": 5708,
      "ighter": 5709,
      "OC": 5710,
      "Ġwid": 5711,
      "ĠLtd": 5712,
      "Ġcompr": 5713,
      "Ġuns": 5714,
      "Ġsubstant": 5715,
      "burg": 5716,
      "Ġmini": 5717,
      "ĠAustralian": 5718,
      "isco": 5719,
      "Ġgrown": 5720,
      "imately": 5721,
      "ĠPeter": 5722,
      "Ġexcess": 5723,
      "Ġaffected": 5724,
      "Ġisland": 5725,
      "ĠWomen": 5726,
      "Ġdepart": 5727,
      "ĠKore": 5728,
      "Ġtwice": 5729,
      "Ġtreated": 5730,
      "ĠFinally": 5731,
      "ĠDou": 5732,
      "Ġleather": 5733,
      "Ġsubmit": 5734,
      "Ġbigger": 5735,
      "Ġwriter": 5736,
      "ĠiPhone": 5737,
      "iest": 5738,
      "Ġtough": 5739,
      "Ġincl": 5740,
      "ava": 5741,
      "ĠDid": 5742,
      "Ġexternal": 5743,
      "Ġmeat": 5744,
      "ĠRobert": 5745,
      "Ġsac": 5746,
      "Ġcro": 5747,
      "Ġguy": 5748,
      "ĠConference": 5749,
      "Ð¾Ð": 5750,
      "ĠFund": 5751,
      "Ġbegins": 5752,
      "hand": 5753,
      "Ġrenew": 5754,
      "Ġfrequently": 5755,
      "ds": 5756,
      "ĠChicago": 5757,
      "Ġjoy": 5758,
      "Ġroute": 5759,
      "Ġcrew": 5760,
      "Ġdefined": 5761,
      "Ġsearching": 5762,
      "Ġfreed": 5763,
      "Ġath": 5764,
      "irms": 5765,
      "Ġfootball": 5766,
      "ĠEqu": 5767,
      "Ġcontemporary": 5768,
      "ĠVirgin": 5769,
      ");": 5770,
      "Ġmail": 5771,
      "ĠRussia": 5772,
      "pass": 5773,
      "Ġincredible": 5774,
      "ĠEarth": 5775,
      "Ġtrained": 5776,
      "Ġdelight": 5777,
      "ĠHead": 5778,
      "Ġregul": 5779,
      "Ġportion": 5780,
      "Ġarrived": 5781,
      "Ġbrowser": 5782,
      "Ġneighborhood": 5783,
      "dered": 5784,
      "Ġengage": 5785,
      "ĠScott": 5786,
      "Ġdistribution": 5787,
      "ĠEconom": 5788,
      "pes": 5789,
      "Ġdating": 5790,
      "Ġhealthcare": 5791,
      "Ġdumpster": 5792,
      "Ġapartment": 5793,
      "uality": 5794,
      "Ġforest": 5795,
      "ĠTre": 5796,
      "ĠTour": 5797,
      "ĠLos": 5798,
      "ĠIP": 5799,
      "oose": 5800,
      "fection": 5801,
      "Ġreasonable": 5802,
      "appy": 5803,
      "Ġinnovation": 5804,
      "Ñķ": 5805,
      "anged": 5806,
      "Ġauthent": 5807,
      "Ġhosting": 5808,
      "orry": 5809,
      "Ġresidential": 5810,
      "luding": 5811,
      "Ġvictim": 5812,
      "othe": 5813,
      "Ġchicken": 5814,
      "Ġmachines": 5815,
      "Ġtrend": 5816,
      "road": 5817,
      "Ġneck": 5818,
      "Ġelectrical": 5819,
      "iat": 5820,
      "ĠStudents": 5821,
      "related": 5822,
      "Ġsupports": 5823,
      "Ġtopics": 5824,
      "van": 5825,
      "ĠGal": 5826,
      "Ġprivacy": 5827,
      "ĠRussian": 5828,
      "Ġmouth": 5829,
      "Ġformed": 5830,
      "Ġteeth": 5831,
      "Ġcoach": 5832,
      "Ġawareness": 5833,
      "cher": 5834,
      "hus": 5835,
      "oses": 5836,
      "Ġassets": 5837,
      "Ġconstantly": 5838,
      "ÃŃ": 5839,
      "inations": 5840,
      "asp": 5841,
      "Ġemphas": 5842,
      "Ġpharm": 5843,
      "Ġequal": 5844,
      "Ġlifestyle": 5845,
      "ĠPack": 5846,
      "Ġcycle": 5847,
      "Ġfemale": 5848,
      "atre": 5849,
      "ĠNY": 5850,
      "Ġwalls": 5851,
      "Ġsymbol": 5852,
      "ĠCEO": 5853,
      "olve": 5854,
      "Ġstanding": 5855,
      "Ġanswers": 5856,
      "otic": 5857,
      "Ġspr": 5858,
      "Ġentr": 5859,
      "Ġconcerned": 5860,
      "Ġinstitutions": 5861,
      "Ġscientific": 5862,
      "Ġconver": 5863,
      "Ġphase": 5864,
      "Ġreceiving": 5865,
      "Ġcandidates": 5866,
      "erts": 5867,
      "ĠSmith": 5868,
      "Ġtut": 5869,
      "Ġbless": 5870,
      "Ġur": 5871,
      "ĠCH": 5872,
      "poration": 5873,
      "ĠGall": 5874,
      "Ġsuccessfully": 5875,
      "Ġmilk": 5876,
      "Ġtub": 5877,
      "ĠBud": 5878,
      "Ġnegot": 5879,
      "ĠCy": 5880,
      "ĠSoft": 5881,
      "Ġyellow": 5882,
      "000000": 5883,
      "Ġmountain": 5884,
      "Ġplays": 5885,
      "Ġkeeps": 5886,
      "Ġappointment": 5887,
      "Ġemotional": 5888,
      "Ġupper": 5889,
      "Ġmatters": 5890,
      "ĠLab": 5891,
      "Ġpositions": 5892,
      "ĠAbout": 5893,
      "Ġkill": 5894,
      "Ġbread": 5895,
      "Ġrough": 5896,
      "ixture": 5897,
      "ĠCre": 5898,
      "Ġcake": 5899,
      "icial": 5900,
      "Ġfly": 5901,
      "ĠLog": 5902,
      "ĠFranc": 5903,
      "Ġaccessible": 5904,
      "Ġmarried": 5905,
      "Ġvir": 5906,
      "Ġdescription": 5907,
      "Ġshoes": 5908,
      "ĠLearn": 5909,
      "ta": 5910,
      "Ġkick": 5911,
      "Ġfort": 5912,
      "Ġking": 5913,
      "Ġperman": 5914,
      "Ġintegrated": 5915,
      "ĠTri": 5916,
      "ĠManager": 5917,
      "Ġparam": 5918,
      "ĠTown": 5919,
      "aste": 5920,
      "Ġgro": 5921,
      "ĠOper": 5922,
      "Ġphotography": 5923,
      "ĠAsia": 5924,
      "ounder": 5925,
      "Ġtechnique": 5926,
      "Ġholds": 5927,
      "Ġplanned": 5928,
      "Ġsheet": 5929,
      "Ġrelatively": 5930,
      "ĠParis": 5931,
      "You": 5932,
      "Ġprompt": 5933,
      "ĠTry": 5934,
      "Ġinteg": 5935,
      "Ġfacilit": 5936,
      "Ġmembership": 5937,
      "SA": 5938,
      "hors": 5939,
      "Ġwealth": 5940,
      "weight": 5941,
      "Ġimprovement": 5942,
      "llo": 5943,
      "osite": 5944,
      "Ġfourth": 5945,
      "Ġhorse": 5946,
      "Ġgear": 5947,
      "Ġassessment": 5948,
      "Ġforces": 5949,
      "ĠOffic": 5950,
      "ossible": 5951,
      "ĠApplic": 5952,
      "Ġtiss": 5953,
      "ĠCode": 5954,
      "pret": 5955,
      "ilst": 5956,
      "Ġchat": 5957,
      "Ġkit": 5958,
      "Ġregional": 5959,
      "Ġsevere": 5960,
      "Ġloves": 5961,
      "Ġbattle": 5962,
      "Ġupcoming": 5963,
      "Ġtaught": 5964,
      "Ġrail": 5965,
      "look": 5966,
      "Ġcooper": 5967,
      "Ġextract": 5968,
      "Ġsilver": 5969,
      "Ġstopped": 5970,
      "Ġcitizens": 5971,
      "Ġfal": 5972,
      "stone": 5973,
      "cuit": 5974,
      "ĠDemocr": 5975,
      "igan": 5976,
      "Ġcheese": 5977,
      "Ġskill": 5978,
      "Ġbroken": 5979,
      "rate": 5980,
      "ĠUl": 5981,
      "ĠItalian": 5982,
      "Ġfoundation": 5983,
      "ĠCanadian": 5984,
      "ĠHotel": 5985,
      "oes": 5986,
      "Ġconducted": 5987,
      "isher": 5988,
      "ĠDen": 5989,
      "Ġoperate": 5990,
      "Ġprop": 5991,
      "Ġcarbon": 5992,
      "Ġcertified": 5993,
      "asts": 5994,
      "Ġinvestors": 5995,
      "Ġexpectations": 5996,
      "ĠTim": 5997,
      "endar": 5998,
      "Ġfro": 5999,
      "Ġchallenging": 6000,
      "uts": 6001,
      "Ġplate": 6002,
      "olved": 6003,
      "Ġbelief": 6004,
      "Ġidentity": 6005,
      "uration": 6006,
      "Ġimpressive": 6007,
      "Ġtypical": 6008,
      "ban": 6009,
      "Ġpassword": 6010,
      "Ġcampus": 6011,
      "Ġinspiration": 6012,
      "Ġexclusive": 6013,
      "intage": 6014,
      "ait": 6015,
      "cling": 6016,
      "ĠNE": 6017,
      "Ġflag": 6018,
      "Ġpu": 6019,
      "ĠSign": 6020,
      "Ġhardware": 6021,
      "ĠNov": 6022,
      "Ġdiverse": 6023,
      "ĠWil": 6024,
      "Ġusual": 6025,
      "Ġcharged": 6026,
      "Ġdistinct": 6027,
      "working": 6028,
      "Â°": 6029,
      "ĠCongress": 6030,
      "ĠVictor": 6031,
      "spe": 6032,
      "Ġstudio": 6033,
      "ĠMedia": 6034,
      "Ġsituations": 6035,
      "Ġmut": 6036,
      "abled": 6037,
      "ĠTrust": 6038,
      "Ġscheduled": 6039,
      "riage": 6040,
      "Ĥ¬": 6041,
      "ĠSU": 6042,
      "ĠControl": 6043,
      "Ġhappening": 6044,
      "ht": 6045,
      "Ġmal": 6046,
      "Ġoutstanding": 6047,
      "Ġcop": 6048,
      "Ġdrugs": 6049,
      "Ġease": 6050,
      "Ġfacing": 6051,
      "istan": 6052,
      "Ġagents": 6053,
      "ias": 6054,
      "Ġends": 6055,
      "Ġstands": 6056,
      "Ġluxury": 6057,
      "Ġalcohol": 6058,
      "ĠAud": 6059,
      "Ġinvent": 6060,
      "Ġmonitoring": 6061,
      "MA": 6062,
      "otton": 6063,
      "Ġchain": 6064,
      "Ġeveryday": 6065,
      "ĠUnf": 6066,
      "aked": 6067,
      "Ġinformed": 6068,
      "Ġchoosing": 6069,
      "Ġretire": 6070,
      "Ġclosely": 6071,
      "Ġcloser": 6072,
      "Ġarts": 6073,
      "Ġbonus": 6074,
      "Ġtheory": 6075,
      "anda": 6076,
      "ĠPlace": 6077,
      "ĠEnjoy": 6078,
      "Ġsavings": 6079,
      "Ġticket": 6080,
      "Ġnine": 6081,
      "Ġsauce": 6082,
      "Ġqualified": 6083,
      "Ġstyles": 6084,
      "Ġexecutive": 6085,
      "orders": 6086,
      "Ġelig": 6087,
      "Ġdepth": 6088,
      "acks": 6089,
      "Ġvillage": 6090,
      "Ġmel": 6091,
      "Ġserves": 6092,
      "Ġsyn": 6093,
      "Ġpartnership": 6094,
      "Ġrid": 6095,
      "ĠAmericans": 6096,
      "ĠSpring": 6097,
      "ĠLu": 6098,
      "Ġrand": 6099,
      "Ġdeploy": 6100,
      "Ġvs": 6101,
      "Ġbask": 6102,
      "Ġages": 6103,
      "itable": 6104,
      "arsh": 6105,
      "Ġinvolve": 6106,
      "Ġsupposed": 6107,
      "ĠHuman": 6108,
      "Ġobtained": 6109,
      "Ġcircumstances": 6110,
      "Ġcorrespond": 6111,
      "vi": 6112,
      "Ġstre": 6113,
      "ĠMike": 6114,
      "Ġremoval": 6115,
      "ĠHim": 6116,
      "Ġagreed": 6117,
      "Ġclassroom": 6118,
      "Ġmassive": 6119,
      "Ġtrouble": 6120,
      "Ġphilos": 6121,
      "ĠIC": 6122,
      "Ġinstruct": 6123,
      "ora": 6124,
      "ĠEr": 6125,
      "Ġrank": 6126,
      "Ġquote": 6127,
      "Ġthorough": 6128,
      "Ġpublish": 6129,
      "Ġroutine": 6130,
      "sm": 6131,
      "ena": 6132,
      "Ġmir": 6133,
      "Ġsan": 6134,
      "gging": 6135,
      "Ġnearby": 6136,
      "Ġlandscape": 6137,
      "ĠIre": 6138,
      "Ġfailed": 6139,
      "Ġcaught": 6140,
      "Ġdefault": 6141,
      "ĠIll": 6142,
      "Ġvital": 6143,
      "Ġprogramme": 6144,
      "ĠDisc": 6145,
      "Ġextended": 6146,
      "rid": 6147,
      "oop": 6148,
      "Ġalle": 6149,
      "Ġorganized": 6150,
      "ss": 6151,
      "ĠPub": 6152,
      "Ġcommission": 6153,
      "ĠBuy": 6154,
      "Ġbowl": 6155,
      "Ġappeared": 6156,
      "Ġmovies": 6157,
      "inn": 6158,
      "Ġinches": 6159,
      "osh": 6160,
      "Ġmeetings": 6161,
      "Ġfeatured": 6162,
      "Ġrisks": 6163,
      "Ġprotected": 6164,
      "rieved": 6165,
      "Ġstunning": 6166,
      "rency": 6167,
      "uclear": 6168,
      "Ġregulations": 6169,
      "Ġworldwide": 6170,
      "Ġorganis": 6171,
      "aning": 6172,
      "irmed": 6173,
      "aren": 6174,
      "ĠRev": 6175,
      "Ġvend": 6176,
      "Ġang": 6177,
      "ĠJud": 6178,
      "Ġmonitor": 6179,
      "Ġengagement": 6180,
      "ĠFrank": 6181,
      "Ġfif": 6182,
      "Ġped": 6183,
      "Ġlit": 6184,
      "ĠBed": 6185,
      "Ġtransition": 6186,
      "etary": 6187,
      "Ġcoordin": 6188,
      "Ġspeaking": 6189,
      "ords": 6190,
      "Ġpersonally": 6191,
      "Ġheight": 6192,
      "Ġreligious": 6193,
      "Ġconv": 6194,
      "ints": 6195,
      "Ġemployment": 6196,
      "ĠLooking": 6197,
      "Ġentirely": 6198,
      "Ġspiritual": 6199,
      "erry": 6200,
      "Ġsister": 6201,
      "comes": 6202,
      "Ġflexible": 6203,
      "made": 6204,
      "west": 6205,
      "Ġturns": 6206,
      "Ġbirthday": 6207,
      "Ġaffili": 6208,
      "Ġrandom": 6209,
      "Ġpun": 6210,
      "ĠMS": 6211,
      "Ġriver": 6212,
      "orgeous": 6213,
      "Ġinterface": 6214,
      "nergy": 6215,
      "Ġcollaboration": 6216,
      "Ġeditor": 6217,
      "ĠLand": 6218,
      "Ġfitness": 6219,
      "vate": 6220,
      "Ġexpenses": 6221,
      "Ġeleg": 6222,
      "Ġedition": 6223,
      "Ġcapable": 6224,
      "Ġcreates": 6225,
      "Ġsurprise": 6226,
      "but": 6227,
      "Ġrear": 6228,
      "igration": 6229,
      "Ġstars": 6230,
      "Ġpleased": 6231,
      "Ġhyp": 6232,
      "ĠCa": 6233,
      "Ġrecognized": 6234,
      "ĠUnfortunately": 6235,
      "bur": 6236,
      "Ġconcrete": 6237,
      "ĠMP": 6238,
      "Ġsoil": 6239,
      "liers": 6240,
      "Ġnetworks": 6241,
      "Ġimagine": 6242,
      "Ġshel": 6243,
      "Ġresearchers": 6244,
      "uine": 6245,
      "ĠFull": 6246,
      "ĠThus": 6247,
      "Ġreturns": 6248,
      "Ġmissed": 6249,
      "ĠJose": 6250,
      "Ġwitness": 6251,
      "ĠMA": 6252,
      "ĠGarden": 6253,
      "ca": 6254,
      "ĠMax": 6255,
      "Ġmainly": 6256,
      "Ġwinner": 6257,
      "ĠMinister": 6258,
      "ĠId": 6259,
      "Ġvoc": 6260,
      "Ġentreprene": 6261,
      "Ġcounsel": 6262,
      "Ġtab": 6263,
      "cknow": 6264,
      "umes": 6265,
      "ework": 6266,
      "Ġvacation": 6267,
      "Ġmoments": 6268,
      "OV": 6269,
      "Ġcompare": 6270,
      "Ġentertainment": 6271,
      "alled": 6272,
      "Ġrecorded": 6273,
      "ĠBible": 6274,
      "Ġroot": 6275,
      "ĠLeague": 6276,
      "secut": 6277,
      "Ġrow": 6278,
      "Ġoven": 6279,
      "ĠAdminist": 6280,
      "Ġimplementation": 6281,
      "va": 6282,
      "ĠMen": 6283,
      "Ġwearing": 6284,
      "Ġanx": 6285,
      "orable": 6286,
      "Ġelection": 6287,
      "Ġgifts": 6288,
      "ĠCab": 6289,
      "Ġshock": 6290,
      "anges": 6291,
      "ĠAcademy": 6292,
      "ĠAT": 6293,
      "Ġclothes": 6294,
      "ĠAuthor": 6295,
      "Ġvast": 6296,
      "ĠWebs": 6297,
      "Ġincreases": 6298,
      "MC": 6299,
      "ĠMont": 6300,
      "Ġexceed": 6301,
      "iminal": 6302,
      "Ġcontrast": 6303,
      "ĠSeries": 6304,
      "Ġast": 6305,
      "ĠCost": 6306,
      "Ġresistance": 6307,
      "arrow": 6308,
      "ĠBal": 6309,
      "Ġauthority": 6310,
      "Ġjudge": 6311,
      "idays": 6312,
      "Ġmoist": 6313,
      "Ġdiss": 6314,
      "Ġsky": 6315,
      "Ġcrucial": 6316,
      "Ġapparent": 6317,
      "ĠSpanish": 6318,
      "arian": 6319,
      "ĠCe": 6320,
      "Ġworse": 6321,
      "ĠChildren": 6322,
      "away": 6323,
      "Ġdefense": 6324,
      "Ġvirtual": 6325,
      "Ã¼": 6326,
      "ĠChair": 6327,
      "Ġbanks": 6328,
      "cking": 6329,
      "ache": 6330,
      "Ġentered": 6331,
      "Ġdiscip": 6332,
      "ĠHaw": 6333,
      "Ġtrig": 6334,
      "Ġenthus": 6335,
      "Ġobjects": 6336,
      "ĠCreat": 6337,
      "Ġcolumn": 6338,
      "Ġscr": 6339,
      "Ġgallery": 6340,
      "ĠWay": 6341,
      "ĠRest": 6342,
      "Ġexposure": 6343,
      "Ġgarage": 6344,
      "ĠCup": 6345,
      "Ġairport": 6346,
      "Ġatmosphere": 6347,
      "Ġdifferences": 6348,
      "Ġther": 6349,
      "lete": 6350,
      "Ġimproving": 6351,
      "Ġnormally": 6352,
      "ĠSupport": 6353,
      "Ġgrew": 6354,
      "ĠOk": 6355,
      "Ġattached": 6356,
      "Ġprecise": 6357,
      "Ġguidance": 6358,
      "Ġarg": 6359,
      "Ġvul": 6360,
      "ĠDespite": 6361,
      "ĠSmall": 6362,
      "Ġdental": 6363,
      "Ġnoticed": 6364,
      "izer": 6365,
      "Ġfolks": 6366,
      "ĠScot": 6367,
      "iked": 6368,
      "Ġinch": 6369,
      "ĠMiddle": 6370,
      "ĠEngineering": 6371,
      "Ġtemplate": 6372,
      "Ġrecognize": 6373,
      "ĠDigital": 6374,
      "ĠFestival": 6375,
      "Ġtested": 6376,
      "Ġsustainable": 6377,
      "Ġmic": 6378,
      "ĠBeaut": 6379,
      "Ġmedicine": 6380,
      "Ġextension": 6381,
      "ĠOrig": 6382,
      "Ġpicked": 6383,
      "Ġdestination": 6384,
      "Ġcelebrate": 6385,
      "Ġfreedom": 6386,
      "Ġpm": 6387,
      "Ġnone": 6388,
      "ĠMic": 6389,
      "Ġadvoc": 6390,
      "oup": 6391,
      "ĠFair": 6392,
      "Ġmere": 6393,
      "date": 6394,
      "ĠAR": 6395,
      "Ġgrab": 6396,
      "Ġtiny": 6397,
      "Ġsad": 6398,
      "Ġpregn": 6399,
      "Ġnative": 6400,
      "ĠSuch": 6401,
      "ĠOpt": 6402,
      "Ġyesterday": 6403,
      "han": 6404,
      "yard": 6405,
      "ĠCath": 6406,
      "Ġunlike": 6407,
      "Ġstructures": 6408,
      "Ġincorpor": 6409,
      "ĠRoyal": 6410,
      "Ġtom": 6411,
      "????": 6412,
      "Ġrom": 6413,
      "Ġrecy": 6414,
      "Ġperforming": 6415,
      "Ġancient": 6416,
      "ĠFederal": 6417,
      "Ġresulting": 6418,
      "Ġindustries": 6419,
      "aturally": 6420,
      "Ġindeed": 6421,
      "bles": 6422,
      "ĠRight": 6423,
      "Ġfeaturing": 6424,
      "merce": 6425,
      "Ġrevealed": 6426,
      "Ġrein": 6427,
      "Ġweap": 6428,
      "Ġunable": 6429,
      "bi": 6430,
      "Ġawarded": 6431,
      "He": 6432,
      "ye": 6433,
      "Ġmuseum": 6434,
      "Ġoffices": 6435,
      "Ġdangerous": 6436,
      "Ġicon": 6437,
      "Ġgolf": 6438,
      "Ġinvestigation": 6439,
      "TH": 6440,
      "REE": 6441,
      "ĠCurrent": 6442,
      "Ġproof": 6443,
      "ĠÂ©": 6444,
      "Ġscholars": 6445,
      "Ġacknow": 6446,
      "Ġpil": 6447,
      "Ġcompens": 6448,
      "ĠColl": 6449,
      "ansion": 6450,
      "SP": 6451,
      "da": 6452,
      "race": 6453,
      "Ġgenerate": 6454,
      "Ġtells": 6455,
      "ĠPin": 6456,
      "Ġgrass": 6457,
      "Ġmanaging": 6458,
      "Ġconsistent": 6459,
      "ĠThomas": 6460,
      "TC": 6461,
      "Ġimpossible": 6462,
      "ospit": 6463,
      "Ġmixed": 6464,
      "Ġindex": 6465,
      "Ġboys": 6466,
      "SE": 6467,
      "ja": 6468,
      "Ġbes": 6469,
      "irty": 6470,
      "ĠItaly": 6471,
      "Ġdesigner": 6472,
      "Ġlistening": 6473,
      "Ġtrends": 6474,
      "ushed": 6475,
      "ĠPass": 6476,
      "ĠLook": 6477,
      "Ġflood": 6478,
      "Ġdates": 6479,
      "Ġtalent": 6480,
      "Ġcollected": 6481,
      "Ġdynamic": 6482,
      "ĠMult": 6483,
      "azz": 6484,
      "Ġdelay": 6485,
      "Ġcomponent": 6486,
      "Ġfavourite": 6487,
      "ĠFarm": 6488,
      "Ġwhenever": 6489,
      "Ġfiled": 6490,
      "ĠIreland": 6491,
      "ingu": 6492,
      "Ġdraft": 6493,
      "dden": 6494,
      "Ġcandidate": 6495,
      "Ġgraduate": 6496,
      "Ġcrisis": 6497,
      "ears": 6498,
      "Ġarms": 6499,
      "ĠThough": 6500,
      "Ġtall": 6501,
      "ĠKnow": 6502,
      "Ġcommunications": 6503,
      "ĠAngeles": 6504,
      "tr": 6505,
      "ĠSC": 6506,
      "ĠEnd": 6507,
      "ĠJim": 6508,
      "ĠShould": 6509,
      "ĠLouis": 6510,
      "Ġodd": 6511,
      "ĠJul": 6512,
      "berry": 6513,
      "Ġturning": 6514,
      "Ġpreparation": 6515,
      "ppers": 6516,
      "Ġcontribute": 6517,
      "ushing": 6518,
      "Ġstrategic": 6519,
      "Ġdisappoint": 6520,
      "ĠTru": 6521,
      "Ġenables": 6522,
      "Ġtro": 6523,
      "Ġprinted": 6524,
      "ĠYet": 6525,
      "Ġmusical": 6526,
      "Ġsight": 6527,
      "icit": 6528,
      "Ġlapt": 6529,
      "itage": 6530,
      "Ġdownt": 6531,
      "ĠArab": 6532,
      "asters": 6533,
      "Ġsufficient": 6534,
      "Ġjack": 6535,
      "Ġclar": 6536,
      "yan": 6537,
      "Ġmeals": 6538,
      "oston": 6539,
      "Ġundert": 6540,
      "Ġsamples": 6541,
      "case": 6542,
      "Ġord": 6543,
      "pel": 6544,
      "ĠVill": 6545,
      "Ġphotograp": 6546,
      "Ġreputation": 6547,
      "%.": 6548,
      "ĠPac": 6549,
      "Ġkilled": 6550,
      "Ġpasseng": 6551,
      "ĠBuilding": 6552,
      "ĠSite": 6553,
      "Ġdevelopers": 6554,
      "Ġdiscussed": 6555,
      "profit": 6556,
      "Ġsudden": 6557,
      "ĠKey": 6558,
      "Ġlinked": 6559,
      "ĠDev": 6560,
      "Ġinstrument": 6561,
      "____": 6562,
      "ĠHen": 6563,
      "ĠEnergy": 6564,
      "ĠWelcome": 6565,
      "ĠPDF": 6566,
      "Ġdomestic": 6567,
      "Ġbear": 6568,
      "celer": 6569,
      "Ġattorney": 6570,
      "Ġfirms": 6571,
      "Ġvisited": 6572,
      "ĠNever": 6573,
      "ailable": 6574,
      "Ġabsor": 6575,
      "Ġearned": 6576,
      "kers": 6577,
      "ĠPrem": 6578,
      "Ġliquid": 6579,
      "ĠCond": 6580,
      "ĠWatch": 6581,
      "Ġ(\"": 6582,
      "Ġdiscl": 6583,
      "Ġoriginally": 6584,
      "Ġpricing": 6585,
      "Ġlessons": 6586,
      "PR": 6587,
      "ĠWild": 6588,
      "Ġveter": 6589,
      "nic": 6590,
      "erning": 6591,
      "astern": 6592,
      "ading": 6593,
      "ĠGar": 6594,
      "ĠBeing": 6595,
      "Ġurban": 6596,
      "arks": 6597,
      "Ġspons": 6598,
      "ĠRoom": 6599,
      "Ġobvious": 6600,
      "eder": 6601,
      "ophy": 6602,
      "alle": 6603,
      "Ġapproval": 6604,
      "Ġbooking": 6605,
      "ĠSystems": 6606,
      "bra": 6607,
      "car": 6608,
      "SC": 6609,
      "writ": 6610,
      "ayer": 6611,
      "ĠFlo": 6612,
      "Ġsubsequ": 6613,
      "Ġtaxes": 6614,
      "Ġsin": 6615,
      "Ġstim": 6616,
      "Ġarrest": 6617,
      "Ġexplained": 6618,
      "ĠHa": 6619,
      "Ġbreast": 6620,
      "Ġattended": 6621,
      "Ġdomin": 6622,
      "Ġfairly": 6623,
      "Ġconfident": 6624,
      "ĠRemember": 6625,
      "Ġwest": 6626,
      "ĠQueen": 6627,
      "folio": 6628,
      "Ġproven": 6629,
      "Ġmining": 6630,
      "Ġsoul": 6631,
      "Ġforced": 6632,
      "utter": 6633,
      "ĠCross": 6634,
      "resents": 6635,
      "Ġtech": 6636,
      "ĠForm": 6637,
      "Ġpossibility": 6638,
      "Ġbags": 6639,
      "Ġpod": 6640,
      "Ġhero": 6641,
      "ĠSecret": 6642,
      "ĠMexico": 6643,
      "GB": 6644,
      "ĠWin": 6645,
      "Ġadventure": 6646,
      "Ġreducing": 6647,
      "ĠAccount": 6648,
      "Ġinterpret": 6649,
      "Ġ..": 6650,
      "ĠWi": 6651,
      "Ġequipped": 6652,
      "site": 6653,
      "oral": 6654,
      "Ġclothing": 6655,
      "ĠSaf": 6656,
      "Ġchief": 6657,
      "Ġchannels": 6658,
      "ĠSEO": 6659,
      "ĠExecut": 6660,
      "illy": 6661,
      "Ġproducing": 6662,
      "comm": 6663,
      "Ġfacts": 6664,
      "ĠCoast": 6665,
      "Ġattractive": 6666,
      "ĠDC": 6667,
      "Ġexpression": 6668,
      "holders": 6669,
      "Ġathlet": 6670,
      "eding": 6671,
      "ographic": 6672,
      "ĠCharl": 6673,
      "Ġtelevision": 6674,
      "ĠVer": 6675,
      "ĠBob": 6676,
      "Ġadds": 6677,
      "Ġreplaced": 6678,
      "Ġimmediate": 6679,
      "Ġrecipes": 6680,
      "hire": 6681,
      "ĠClin": 6682,
      "ĠTimes": 6683,
      "Ġwidely": 6684,
      "igure": 6685,
      "Ġwithd": 6686,
      "Ġtransportation": 6687,
      "enced": 6688,
      "Ġsuc": 6689,
      "Ġtelling": 6690,
      "ĠVan": 6691,
      "Ġconcl": 6692,
      "Ġvulner": 6693,
      "Ġformal": 6694,
      "Ġsuperior": 6695,
      "Ġnegoti": 6696,
      "vy": 6697,
      "Ġwet": 6698,
      "Ġlogo": 6699,
      "duate": 6700,
      "Ġletters": 6701,
      "ĠRetrieved": 6702,
      "Ġbond": 6703,
      "Ġhandling": 6704,
      "Ġfalse": 6705,
      "ican": 6706,
      "Ġchapter": 6707,
      "ideo": 6708,
      "Ġauthors": 6709,
      "ĠLibrary": 6710,
      "Ġtreatments": 6711,
      "Ġversions": 6712,
      "Ġsuggested": 6713,
      "Ġpapers": 6714,
      "ĠChris": 6715,
      "ĠLee": 6716,
      "Ġfigures": 6717,
      "Ġsusp": 6718,
      "II": 6719,
      "ĠLin": 6720,
      "Ġfounded": 6721,
      "Ġmerch": 6722,
      "df": 6723,
      "Ġreward": 6724,
      "Ġarrive": 6725,
      "under": 6726,
      "ĠBow": 6727,
      "Ġje": 6728,
      "igned": 6729,
      "ĠStore": 6730,
      "Ġmotion": 6731,
      "Ġcute": 6732,
      "Ġpill": 6733,
      "hem": 6734,
      "ingly": 6735,
      "abet": 6736,
      "Ġresume": 6737,
      "Ġdesired": 6738,
      "Ġrepresents": 6739,
      "Ġordered": 6740,
      "ĠSea": 6741,
      "ĠAuto": 6742,
      "RI": 6743,
      "Ġ<": 6744,
      "ogue": 6745,
      "wing": 6746,
      "ĠWould": 6747,
      "Ġgenuine": 6748,
      "Ġmanufacturers": 6749,
      "Ġok": 6750,
      "Ġgorgeous": 6751,
      "anger": 6752,
      "Ġdescribe": 6753,
      "ĠAD": 6754,
      "Ġshops": 6755,
      "Ġempt": 6756,
      "Ġgenerated": 6757,
      "Ġrealized": 6758,
      "Ġgrant": 6759,
      "Ġmattress": 6760,
      "ura": 6761,
      "Ġinvited": 6762,
      "Ġongoing": 6763,
      "ĠGame": 6764,
      "luded": 6765,
      "Ġachieved": 6766,
      "\")": 6767,
      "**": 6768,
      "Ġrecording": 6769,
      "Ġfaculty": 6770,
      "Ġmatches": 6771,
      "Ġforth": 6772,
      "can": 6773,
      "tle": 6774,
      "omy": 6775,
      "entle": 6776,
      "Ġlamp": 6777,
      "Ġ000000": 6778,
      "Ġtransp": 6779,
      "Ġconstant": 6780,
      "Ġdealing": 6781,
      "Ġcomparison": 6782,
      "ĠIsl": 6783,
      "ĠVirginia": 6784,
      "edia": 6785,
      "ĠBoston": 6786,
      "Ġspeech": 6787,
      "Ġconfirmed": 6788,
      "Ġsolve": 6789,
      "iments": 6790,
      "Ġofficer": 6791,
      "Ġenterprise": 6792,
      "UL": 6793,
      "Ġocean": 6794,
      "Ġprove": 6795,
      "ĠKen": 6796,
      "Ġplatforms": 6797,
      "ĠAdditionally": 6798,
      "Ġsomewhat": 6799,
      "ĠPhys": 6800,
      "Ġreferred": 6801,
      "ĠCook": 6802,
      "].": 6803,
      "quality": 6804,
      "Ġinjuries": 6805,
      "Ġguidelines": 6806,
      "Ġol": 6807,
      "ĠMobile": 6808,
      "Ġrecon": 6809,
      "ĠTravel": 6810,
      "rig": 6811,
      "ĠSn": 6812,
      "achel": 6813,
      "nament": 6814,
      "ĠHistory": 6815,
      "Ġbodies": 6816,
      "ainless": 6817,
      "Ġflower": 6818,
      "Ġmillions": 6819,
      "ĠMembers": 6820,
      "Ġscan": 6821,
      "Ġsmile": 6822,
      "Ġguitar": 6823,
      "Ġdepends": 6824,
      "Ġhur": 6825,
      "Ġbell": 6826,
      "Ġshift": 6827,
      "Ġfinance": 6828,
      "cover": 6829,
      "Ġprimarily": 6830,
      "Ġfishing": 6831,
      "Ġcontest": 6832,
      "iser": 6833,
      "ĠLow": 6834,
      "ĠLittle": 6835,
      "Ġchose": 6836,
      "ĠDef": 6837,
      "Ġpipe": 6838,
      "Ġvegetables": 6839,
      "zing": 6840,
      "stal": 6841,
      "Ġstake": 6842,
      "ifies": 6843,
      "ĠHP": 6844,
      "odel": 6845,
      "ras": 6846,
      "Ġfilms": 6847,
      "Ġsucceed": 6848,
      "rich": 6849,
      "owing": 6850,
      "Ġrating": 6851,
      "EA": 6852,
      "mond": 6853,
      "ĠPoint": 6854,
      "ĠFun": 6855,
      "ĠInf": 6856,
      "Ġrelief": 6857,
      "Ġpursu": 6858,
      "Ġlosing": 6859,
      "Ġspecialist": 6860,
      "ĠYouT": 6861,
      "Ġbridge": 6862,
      "Ġapplicable": 6863,
      "Ġduty": 6864,
      "ĠProper": 6865,
      "ĠPolice": 6866,
      "Ġheav": 6867,
      "ĠHon": 6868,
      "ĠFIG": 6869,
      "Ġfasc": 6870,
      "Ġinner": 6871,
      "ĠCra": 6872,
      "ĠMur": 6873,
      "Ġexperiment": 6874,
      "Ġavailability": 6875,
      "Ġdisplayed": 6876,
      "MP": 6877,
      "Ñĥ": 6878,
      "sters": 6879,
      "Ġsaved": 6880,
      "Ġtrave": 6881,
      "ĠShop": 6882,
      "Ġcapabilities": 6883,
      "Cl": 6884,
      "Ġmixture": 6885,
      "ĠCast": 6886,
      "gend": 6887,
      "Ġjew": 6888,
      "ĠNeed": 6889,
      "Ġpowder": 6890,
      "Ġtank": 6891,
      "ĠNon": 6892,
      "ĠPrice": 6893,
      "ĠJewish": 6894,
      "ĠAp": 6895,
      "Ġpercentage": 6896,
      "Ġbottle": 6897,
      "Ġwireless": 6898,
      "front": 6899,
      "lymp": 6900,
      "agon": 6901,
      "ĠComple": 6902,
      "Ġtap": 6903,
      "Ġrenov": 6904,
      "ĠÂ·": 6905,
      "ĠBon": 6906,
      "quir": 6907,
      "Ġyounger": 6908,
      "ĠAssist": 6909,
      "Ġestimated": 6910,
      "oty": 6911,
      "Ġfellow": 6912,
      "Ġarchitecture": 6913,
      "Ġstretch": 6914,
      "ĠWebsite": 6915,
      "Sh": 6916,
      "gas": 6917,
      "gers": 6918,
      "real": 6919,
      "Ġdust": 6920,
      "ĠTerm": 6921,
      "ĠMid": 6922,
      "Ġflavor": 6923,
      "ba": 6924,
      "cue": 6925,
      "ĠPract": 6926,
      "oster": 6927,
      "ĠStill": 6928,
      "ĠPerhaps": 6929,
      "ml": 6930,
      "ĠPenn": 6931,
      "ĠFre": 6932,
      "Ġcontrolled": 6933,
      "Ġinvolves": 6934,
      "Ġreporting": 6935,
      "Ġauthorities": 6936,
      "Ġseats": 6937,
      "Ġspeaker": 6938,
      "Ġbasket": 6939,
      "Ġ!": 6940,
      "Ġvent": 6941,
      "ĠChief": 6942,
      "Ġsmell": 6943,
      "UN": 6944,
      "Ġrequirement": 6945,
      "cers": 6946,
      "Ġzone": 6947,
      "Ġcapture": 6948,
      "ĠWH": 6949,
      "Ġanticip": 6950,
      "Ġscheme": 6951,
      "Ġstored": 6952,
      "ĠComput": 6953,
      "Ġrig": 6954,
      "Ġreduction": 6955,
      "friendly": 6956,
      "Ġmur": 6957,
      "Ġupgrade": 6958,
      "Ġmold": 6959,
      "Ġunex": 6960,
      "Ġtrick": 6961,
      "Ġsurprised": 6962,
      "Ġevaluation": 6963,
      "inem": 6964,
      "Ġliked": 6965,
      "Ġaside": 6966,
      "Ġinsert": 6967,
      "Ġensuring": 6968,
      "Ġamounts": 6969,
      "ĠMeet": 6970,
      "Ġawards": 6971,
      "Ġcompat": 6972,
      "ĠJun": 6973,
      "Ġhistoric": 6974,
      "ĠObama": 6975,
      "uction": 6976,
      "inos": 6977,
      "Ġenem": 6978,
      "Ġconcerning": 6979,
      "Ġthin": 6980,
      "ether": 6981,
      "ĠLink": 6982,
      "ellect": 6983,
      "Ġdeposit": 6984,
      "ĠPut": 6985,
      "Ġsharp": 6986,
      "weet": 6987,
      "Ġaccessories": 6988,
      "Ġhumans": 6989,
      "Ġcalifornia": 6990,
      "lements": 6991,
      "Ġdecade": 6992,
      "Ġtwe": 6993,
      "Ġarray": 6994,
      "neys": 6995,
      "Ġbuyers": 6996,
      "Ġrecommendations": 6997,
      "Ġdeck": 6998,
      "ĠOS": 6999,
      "Ġworkshop": 7000,
      "ĠMachine": 7001,
      "host": 7002,
      "ulpt": 7003,
      "eline": 7004,
      "Ġdrawing": 7005,
      "ĠMartin": 7006,
      "Ġterror": 7007,
      "Ġconflict": 7008,
      "urse": 7009,
      "ĠLED": 7010,
      "Ġstatements": 7011,
      "Ġcontrols": 7012,
      "Ġbreath": 7013,
      "uct": 7014,
      "Ġhidden": 7015,
      "Ġyard": 7016,
      "ĠCR": 7017,
      "ĠBa": 7018,
      "Ġprinting": 7019,
      "Ġboxes": 7020,
      "Ġnutrition": 7021,
      "aper": 7022,
      "Ġcos": 7023,
      "ĠSky": 7024,
      "ĠWeek": 7025,
      "class": 7026,
      "Ġbeer": 7027,
      "Ġaccomplish": 7028,
      "mary": 7029,
      "Ġsick": 7030,
      "Ġrose": 7031,
      "ĠInstagram": 7032,
      "ĠOhio": 7033,
      "GE": 7034,
      "Ġteen": 7035,
      "Ġfollows": 7036,
      "ĠJeff": 7037,
      "isk": 7038,
      "Ġstro": 7039,
      "Ġinsight": 7040,
      "iences": 7041,
      "Ġattacks": 7042,
      "Ġpriority": 7043,
      "Ġdefend": 7044,
      "worth": 7045,
      "yers": 7046,
      "ione": 7047,
      "ĠAri": 7048,
      "ĠCB": 7049,
      "terior": 7050,
      "ĠColumb": 7051,
      "Ġfunctional": 7052,
      "Ġpenal": 7053,
      "build": 7054,
      "VD": 7055,
      "level": 7056,
      "Ġads": 7057,
      "ĠZeal": 7058,
      "Ġhonor": 7059,
      "Ġassembly": 7060,
      "Ġlad": 7061,
      "athy": 7062,
      "Ġslot": 7063,
      "Ġblend": 7064,
      "ĠSanta": 7065,
      "Ġinteract": 7066,
      "Ġultimately": 7067,
      "oured": 7068,
      "isters": 7069,
      "Ġoverw": 7070,
      "Ġentit": 7071,
      "Ġrelative": 7072,
      "Ġseriously": 7073,
      "ERS": 7074,
      "Ġborder": 7075,
      "Ġmand": 7076,
      "ĠSon": 7077,
      "Ġextent": 7078,
      "Ġfru": 7079,
      "Ġsynt": 7080,
      "Ġcrime": 7081,
      "Ġdrag": 7082,
      "itution": 7083,
      "FC": 7084,
      "she": 7085,
      "inch": 7086,
      "Ġcriminal": 7087,
      "ĠOrder": 7088,
      "Ġaddresses": 7089,
      "Ġtracking": 7090,
      "ĠLive": 7091,
      "Ġcommunicate": 7092,
      "Ġexception": 7093,
      "ĠOlymp": 7094,
      "ĠReport": 7095,
      "Ġillness": 7096,
      "pack": 7097,
      "Ġmg": 7098,
      "ĠThree": 7099,
      "Ġagricult": 7100,
      "EP": 7101,
      "zes": 7102,
      "Ġhall": 7103,
      "Ġsubmitted": 7104,
      "Ġcommittee": 7105,
      "Ġsatisfaction": 7106,
      "ĠExecutive": 7107,
      "ĠRoll": 7108,
      "Ġbrill": 7109,
      "Ġwriters": 7110,
      "law": 7111,
      "Ġofficers": 7112,
      "Ġerrors": 7113,
      "Ġmanagers": 7114,
      "Ġcritic": 7115,
      "ĠYouTube": 7116,
      "FL": 7117,
      "Ġid": 7118,
      "ĠBall": 7119,
      "ĠBlo": 7120,
      "ĠFort": 7121,
      "Ġmoves": 7122,
      "Ġconsists": 7123,
      "Ġapplying": 7124,
      "Ġlikes": 7125,
      "Ġslowly": 7126,
      "ĠIran": 7127,
      "Ġcrusher": 7128,
      "long": 7129,
      "ĠSection": 7130,
      "ĠBox": 7131,
      "Ġultimate": 7132,
      "Ġbelieved": 7133,
      "Ġwra": 7134,
      "Ġrely": 7135,
      "ĠSar": 7136,
      "Ġregions": 7137,
      "Ġinstant": 7138,
      "Ġbehalf": 7139,
      "Ġintroduction": 7140,
      "ĠFOR": 7141,
      "ĠLib": 7142,
      "Ġmuscle": 7143,
      "Ġprinciples": 7144,
      "Ġille": 7145,
      "ĠInsurance": 7146,
      "ĠSouthern": 7147,
      "Ġwhilst": 7148,
      "Ġdispl": 7149,
      "Ġmagazine": 7150,
      "ĠZealand": 7151,
      "dney": 7152,
      "atell": 7153,
      "Ġadm": 7154,
      "Ġapproaches": 7155,
      "ĠJoe": 7156,
      "ĠSteve": 7157,
      "ĠAgain": 7158,
      "esh": 7159,
      "ĠSci": 7160,
      "Ġkne": 7161,
      "Ġpresents": 7162,
      "ii": 7163,
      "oh": 7164,
      "ogen": 7165,
      "Ġplanet": 7166,
      "Ġcertification": 7167,
      "Ġpurchasing": 7168,
      "Ġeligible": 7169,
      "Ã³": 7170,
      "Ġtip": 7171,
      "etry": 7172,
      "ĠCO": 7173,
      "ennis": 7174,
      "Ġelev": 7175,
      "Ġë": 7176,
      "Ġphones": 7177,
      "Ġinspe": 7178,
      "Ġforecast": 7179,
      "ĠDisney": 7180,
      "AB": 7181,
      "Ġsoph": 7182,
      "ĠFour": 7183,
      "Ġsomewhere": 7184,
      "Ġroles": 7185,
      "Ġflash": 7186,
      "ATION": 7187,
      "Ġcommonly": 7188,
      "Ġlake": 7189,
      "Ġreader": 7190,
      "Ġpink": 7191,
      "ĠCir": 7192,
      "Ġhealing": 7193,
      "uls": 7194,
      "Ġusage": 7195,
      "Ġtape": 7196,
      "Ġalongside": 7197,
      "EST": 7198,
      "Ġnarrow": 7199,
      "Ġclimb": 7200,
      "ĠConf": 7201,
      "ĠConnect": 7202,
      "Fi": 7203,
      "Ġfestival": 7204,
      "Ġeast": 7205,
      "Ġguard": 7206,
      "person": 7207,
      "Ġhang": 7208,
      "Ġraw": 7209,
      "ĠGuide": 7210,
      "ĠUt": 7211,
      "Ġlegs": 7212,
      "ĠHelp": 7213,
      "Ġvibr": 7214,
      "Ġwash": 7215,
      "Ġcompliance": 7216,
      "ĠSpirit": 7217,
      "Ġpackages": 7218,
      "ĠFinancial": 7219,
      "Ġcodes": 7220,
      "stream": 7221,
      "ĠPot": 7222,
      "ĠHappy": 7223,
      "uster": 7224,
      "Ġhoping": 7225,
      "kins": 7226,
      "Ġmile": 7227,
      "Ġnoise": 7228,
      "Ġservers": 7229,
      "Ġtomorrow": 7230,
      "HS": 7231,
      "ĠBath": 7232,
      "Ġhabit": 7233,
      "Ġpersons": 7234,
      "Ġpreferred": 7235,
      "ĠHospital": 7236,
      "agues": 7237,
      "tocol": 7238,
      "Ġdestroy": 7239,
      "Ġpermanent": 7240,
      "Ġcush": 7241,
      "ĠYoung": 7242,
      "Ġflour": 7243,
      "EG": 7244,
      "ati": 7245,
      "Ġmale": 7246,
      "arters": 7247,
      "ĠHeart": 7248,
      "Ġincreasingly": 7249,
      "Ġlicensed": 7250,
      "LY": 7251,
      "zil": 7252,
      "phy": 7253,
      "ĠMarketing": 7254,
      "ĠTax": 7255,
      "ĠFREE": 7256,
      "Ġpassing": 7257,
      "Ġviolence": 7258,
      "ulum": 7259,
      "Ġcharm": 7260,
      "Ġlawyer": 7261,
      "Ġconsideration": 7262,
      "proof": 7263,
      "Ġcookies": 7264,
      "Ġcategories": 7265,
      "lder": 7266,
      "elf": 7267,
      "ivalent": 7268,
      "Ġenforce": 7269,
      "Ġunderst": 7270,
      "Ġlimits": 7271,
      "Ġexceptional": 7272,
      "Ġtor": 7273,
      "Ġdiagram": 7274,
      "Ġepisode": 7275,
      "Ġbench": 7276,
      "ĠCome": 7277,
      "Ġattach": 7278,
      "Ġexpressed": 7279,
      "Ġspecified": 7280,
      "Ġblocks": 7281,
      "ĠCarolina": 7282,
      "tics": 7283,
      "ĠQuality": 7284,
      "ĠSmart": 7285,
      "Press": 7286,
      "cular": 7287,
      "zer": 7288,
      "Ġnewly": 7289,
      "Ġviewed": 7290,
      "ĠGames": 7291,
      "Ġattra": 7292,
      "Ġportfolio": 7293,
      "Ġlayout": 7294,
      "Ġbelieves": 7295,
      "Ġspoke": 7296,
      "Ġcoat": 7297,
      "Ġsuggests": 7298,
      "haust": 7299,
      "Ġcontinuing": 7300,
      "Ã¶": 7301,
      "Ġkm": 7302,
      "Ġloving": 7303,
      "Ġblind": 7304,
      "Ġengaged": 7305,
      "ĠGeorg": 7306,
      "Ġyield": 7307,
      "ulating": 7308,
      "ĠRoman": 7309,
      "Ġmarked": 7310,
      "lose": 7311,
      "Ø§": 7312,
      "Ġnuclear": 7313,
      "ĠHard": 7314,
      "ĠDub": 7315,
      "riers": 7316,
      "inent": 7317,
      "Ġsuppliers": 7318,
      "Ġliability": 7319,
      "Ġsuffering": 7320,
      "ran": 7321,
      "Ġbasically": 7322,
      "Ġfighting": 7323,
      "Ġshooting": 7324,
      "ĠRichard": 7325,
      "missions": 7326,
      "Ġsplit": 7327,
      "ĠStock": 7328,
      "ĠNight": 7329,
      "ĠRef": 7330,
      "Ġexposed": 7331,
      "Ġsending": 7332,
      "Ġtracks": 7333,
      "rated": 7334,
      "ĠAgree": 7335,
      "sup": 7336,
      "ĠPA": 7337,
      "ĠDu": 7338,
      "ĠEp": 7339,
      "Ġherself": 7340,
      "Ġcausing": 7341,
      "Ġenjoying": 7342,
      "Ġmemories": 7343,
      "Ġsuggestions": 7344,
      "Ġnaturally": 7345,
      "Ġcontaining": 7346,
      "Ġcounty": 7347,
      "ĠBrand": 7348,
      "Ġpleasure": 7349,
      "DS": 7350,
      "Ġcotton": 7351,
      "Ġtox": 7352,
      "ĠDie": 7353,
      "Ġintent": 7354,
      "Ġhotels": 7355,
      "gged": 7356,
      "Ġposting": 7357,
      "Ġregardless": 7358,
      "utch": 7359,
      "igate": 7360,
      "ĠAndrew": 7361,
      "Ġexport": 7362,
      "Ġvisible": 7363,
      "Ġconnections": 7364,
      "Ġhydro": 7365,
      "Ġtack": 7366,
      "Ġtransmission": 7367,
      "ĠWorks": 7368,
      "Ġprospect": 7369,
      "Ġram": 7370,
      "Ġamend": 7371,
      "Ġweekly": 7372,
      "Ġsensor": 7373,
      "Ã¤": 7374,
      "essel": 7375,
      "Ġworst": 7376,
      "iano": 7377,
      "uling": 7378,
      "rip": 7379,
      "apore": 7380,
      "Ġstrict": 7381,
      "iversary": 7382,
      "Ġpromise": 7383,
      "ĠJoin": 7384,
      "Ġwalked": 7385,
      "Ġcorrectly": 7386,
      "ipt": 7387,
      "Ġspin": 7388,
      "ĠSports": 7389,
      "Ġmarks": 7390,
      "ĠPrint": 7391,
      "Ġremark": 7392,
      "PC": 7393,
      "eters": 7394,
      "Ġstring": 7395,
      "Ġwooden": 7396,
      "Ġsensitive": 7397,
      "Ġelectricity": 7398,
      "bel": 7399,
      "ĠRose": 7400,
      "ĠRam": 7401,
      "Ġresort": 7402,
      "Ġdreams": 7403,
      "ystem": 7404,
      "Ġframework": 7405,
      "ĠLocal": 7406,
      "itan": 7407,
      "Ġinteractive": 7408,
      "Ġvictory": 7409,
      "Ġincredibly": 7410,
      "vas": 7411,
      "Ġconsumption": 7412,
      "Ġdiseases": 7413,
      "Ġauthentic": 7414,
      "LS": 7415,
      "bits": 7416,
      "Ġwarn": 7417,
      "Ġhospit": 7418,
      "you": 7419,
      "ardens": 7420,
      "Ġjustice": 7421,
      "ĠGive": 7422,
      "bration": 7423,
      "ument": 7424,
      "onto": 7425,
      "Ġpra": 7426,
      "ĠNorthern": 7427,
      "Ġexhibition": 7428,
      "Ġdiamond": 7429,
      "ĠSilver": 7430,
      "Ġretirement": 7431,
      "Ġfib": 7432,
      "Ġchances": 7433,
      "What": 7434,
      "ĠGir": 7435,
      "Ġcolours": 7436,
      "Ġcarpet": 7437,
      "iverse": 7438,
      "ĠProfessor": 7439,
      "Ġbare": 7440,
      "Ġinn": 7441,
      "ĠEnt": 7442,
      "tense": 7443,
      "Ġjoining": 7444,
      "Ġpotato": 7445,
      "mo": 7446,
      "Ġreaction": 7447,
      "aded": 7448,
      "Ġaccord": 7449,
      "Ġdriven": 7450,
      "ĠCommon": 7451,
      "Ġlucky": 7452,
      "Ġcrowd": 7453,
      "then": 7454,
      "Ġscientists": 7455,
      "Ġpad": 7456,
      "ĠTraining": 7457,
      "ĠProfessional": 7458,
      "As": 7459,
      "hops": 7460,
      "Ġconcepts": 7461,
      "Ġvolunteers": 7462,
      "ĠJersey": 7463,
      "RS": 7464,
      "ĠFile": 7465,
      "Ġcareful": 7466,
      "Ġopposite": 7467,
      "Ġalumin": 7468,
      "Ġdoctors": 7469,
      "ologist": 7470,
      "ĠPersonal": 7471,
      "Ð»": 7472,
      "iece": 7473,
      "Ġscores": 7474,
      "Ġshouldn": 7475,
      "ĠEnvironment": 7476,
      "Ġminimal": 7477,
      "ĠIrish": 7478,
      "ĠEss": 7479,
      "Ġoverwhel": 7480,
      "nda": 7481,
      "ĠFord": 7482,
      "Ġcontained": 7483,
      "Ġpoker": 7484,
      "Ġrequests": 7485,
      "hew": 7486,
      "riger": 7487,
      "Ġunw": 7488,
      "Ġdispos": 7489,
      "Ġheads": 7490,
      "Ġforever": 7491,
      "ĠPacific": 7492,
      "Ġprogramming": 7493,
      "Ġmagic": 7494,
      "Ġpace": 7495,
      "Ġmm": 7496,
      "Ġconvert": 7497,
      "Ġscope": 7498,
      "Ġpotentially": 7499,
      "ĠMcC": 7500,
      "Ġdent": 7501,
      "charge": 7502,
      "ĠHoly": 7503,
      "âĢ²âĢ²": 7504,
      "Ġlect": 7505,
      "Ġsetup": 7506,
      "Ġfunctionality": 7507,
      "Ġhyper": 7508,
      "Ġstruggle": 7509,
      "Ġcomplicated": 7510,
      "Ġstreets": 7511,
      "ags": 7512,
      "Ġgraphics": 7513,
      "Ġblank": 7514,
      "Ġcrazy": 7515,
      "Ġrequested": 7516,
      "Ġcircuit": 7517,
      "ĠWilliams": 7518,
      "ĠTal": 7519,
      "ĠWrit": 7520,
      "Ġacts": 7521,
      "bar": 7522,
      "Ġphen": 7523,
      "ĠCON": 7524,
      "ĠSelect": 7525,
      "ĠResp": 7526,
      "Ġtraveling": 7527,
      "Ġmaintaining": 7528,
      "ĠTurn": 7529,
      "ĠCro": 7530,
      "rowse": 7531,
      "ĠTele": 7532,
      "pending": 7533,
      "Ġcovering": 7534,
      "Ġtagged": 7535,
      "Ġentrance": 7536,
      "Ġstorm": 7537,
      "Ġlists": 7538,
      "rer": 7539,
      "Ġtoile": 7540,
      "Ġforum": 7541,
      "amental": 7542,
      "Ġbull": 7543,
      "Ġcharacteristics": 7544,
      "Ġaccuracy": 7545,
      "Ġye": 7546,
      "aints": 7547,
      "ĠSales": 7548,
      "Ġhopes": 7549,
      "Ġelegant": 7550,
      "Ġasset": 7551,
      "Ġtransaction": 7552,
      "ributes": 7553,
      "Ġdefinition": 7554,
      "Ġencouraged": 7555,
      "Ġdelivering": 7556,
      "ï¿½ï¿½": 7557,
      "ĠMountain": 7558,
      "ĠMos": 7559,
      "ĠFriend": 7560,
      "Ġoutcomes": 7561,
      "holder": 7562,
      "gypt": 7563,
      "Ġyoga": 7564,
      "Ġsupplement": 7565,
      "Ġstaying": 7566,
      "Ġcomputers": 7567,
      "urning": 7568,
      "áĥ": 7569,
      "Ġtemporary": 7570,
      "Ġcontainer": 7571,
      "ĠPhoto": 7572,
      "born": 7573,
      "iler": 7574,
      "ĠPS": 7575,
      "Ġrural": 7576,
      "Ġincident": 7577,
      "Ġprison": 7578,
      "liament": 7579,
      "ventional": 7580,
      "Ġholidays": 7581,
      "Ġlaptop": 7582,
      "Ġreform": 7583,
      "Ġnic": 7584,
      "Ġlisting": 7585,
      "Ġunexpected": 7586,
      "Ġtooth": 7587,
      "Ġalg": 7588,
      "Ġscreens": 7589,
      "Ġacceler": 7590,
      "Ġelectron": 7591,
      "Ġceiling": 7592,
      "!)": 7593,
      "och": 7594,
      "uing": 7595,
      "ĠÎ": 7596,
      "Ġrefund": 7597,
      "Ġcalendar": 7598,
      "cons": 7599,
      "Ġchecking": 7600,
      "Ġdropped": 7601,
      "anes": 7602,
      "asting": 7603,
      "CE": 7604,
      "CT": 7605,
      "Ġobserved": 7606,
      "ĠCult": 7607,
      "ogether": 7608,
      "Ġexpansion": 7609,
      "ĠPerform": 7610,
      "ĠMichigan": 7611,
      "ĠJackson": 7612,
      "ĠSydney": 7613,
      "Ġzero": 7614,
      "ĠSingapore": 7615,
      "ouch": 7616,
      "Ġheating": 7617,
      "Ġcombine": 7618,
      "ĠHor": 7619,
      "ĠJones": 7620,
      "Ġfunny": 7621,
      "Ġlowest": 7622,
      "Ġhosted": 7623,
      "Ġargument": 7624,
      "Ġunus": 7625,
      "Ġneighb": 7626,
      "Ġhttps": 7627,
      "Ġintelligence": 7628,
      "Ex": 7629,
      "ĠWalk": 7630,
      "phones": 7631,
      "brid": 7632,
      "ĠJon": 7633,
      "ansas": 7634,
      "ĠArea": 7635,
      "Ġdollar": 7636,
      "ns": 7637,
      "Ġskilled": 7638,
      "Ġcertificate": 7639,
      "Ġstuck": 7640,
      "ĠLiving": 7641,
      "Ġeverywhere": 7642,
      "Ġpersonality": 7643,
      "Ġsignature": 7644,
      "Ġsubscrib": 7645,
      "Ġindicate": 7646,
      "Ġempty": 7647,
      "igent": 7648,
      "ĠFL": 7649,
      "uma": 7650,
      "Ġtrim": 7651,
      "Ġassume": 7652,
      "Ġfeelings": 7653,
      "onym": 7654,
      "lers": 7655,
      "Ġintense": 7656,
      "Ġexhaust": 7657,
      "ĠChampions": 7658,
      "ugs": 7659,
      "Ġnecessarily": 7660,
      "Ġutility": 7661,
      "Ġborrow": 7662,
      "ĠPage": 7663,
      "Ġmaintained": 7664,
      "Ġvenue": 7665,
      "Ġorange": 7666,
      "Ġbelt": 7667,
      "Ġcurtain": 7668,
      "Ġtrips": 7669,
      "Ġspeakers": 7670,
      "Ġcrack": 7671,
      "ĠBrazil": 7672,
      "ership": 7673,
      "Ġdishes": 7674,
      "ĠSenior": 7675,
      "ĠKitchen": 7676,
      "ĠStudies": 7677,
      "Ġobviously": 7678,
      "ĠSummer": 7679,
      "Ġswimming": 7680,
      "sis": 7681,
      "Ġdivid": 7682,
      "Ġgained": 7683,
      "ĠAwards": 7684,
      "Ġassigned": 7685,
      "Ġbars": 7686,
      "ĠSM": 7687,
      "ĠMade": 7688,
      "annel": 7689,
      "Ġrecognition": 7690,
      "Ġsurprising": 7691,
      "Ġliterally": 7692,
      "Ġlaugh": 7693,
      "stra": 7694,
      "state": 7695,
      "Ġobst": 7696,
      "Ġkeyword": 7697,
      "ellectual": 7698,
      "If": 7699,
      "bing": 7700,
      "bridge": 7701,
      "Ġcarrying": 7702,
      "Ġsail": 7703,
      "Ġvessel": 7704,
      "Ġpermission": 7705,
      "Ġpanels": 7706,
      "stery": 7707,
      "Ġstations": 7708,
      "ĠLine": 7709,
      "acious": 7710,
      "Ġresidence": 7711,
      "Ġadvent": 7712,
      "pat": 7713,
      "Ġhole": 7714,
      "ĠCub": 7715,
      "Ġski": 7716,
      "Ġcenters": 7717,
      "ĠEveryone": 7718,
      "Ġintegration": 7719,
      "ĠSH": 7720,
      "Ġoutcome": 7721,
      "ĠQuest": 7722,
      "Ġrespectively": 7723,
      "Ġtons": 7724,
      "Ġhi": 7725,
      "Ġgym": 7726,
      "ĠBased": 7727,
      "ĠEX": 7728,
      "izza": 7729,
      "aken": 7730,
      "Ġtransactions": 7731,
      "Ġpolitics": 7732,
      "Ġranking": 7733,
      "Re": 7734,
      "Ġstir": 7735,
      "Ġlets": 7736,
      "Ġstudying": 7737,
      "Ġdebut": 7738,
      "Ġdivision": 7739,
      "Ġtissue": 7740,
      "Ġaer": 7741,
      "Ġkil": 7742,
      "erving": 7743,
      "Ġanyway": 7744,
      "Ġrecover": 7745,
      "being": 7746,
      "ilipp": 7747,
      "ĠDrive": 7748,
      "Ġshed": 7749,
      "ali": 7750,
      "raid": 7751,
      "ĠLLC": 7752,
      "Ġque": 7753,
      "ĠKar": 7754,
      "iki": 7755,
      "cm": 7756,
      "Ġtomat": 7757,
      "Ġmarriage": 7758,
      "Ġpromotion": 7759,
      "ĠCasino": 7760,
      "AA": 7761,
      "Ġhate": 7762,
      "ĠWithout": 7763,
      "amsung": 7764,
      "BM": 7765,
      "EE": 7766,
      "page": 7767,
      "asure": 7768,
      "Ġvintage": 7769,
      "Ġmeets": 7770,
      "Ġspray": 7771,
      "ĠVideo": 7772,
      "Ġpossess": 7773,
      "ĠWordPress": 7774,
      "market": 7775,
      "Ġlib": 7776,
      "rive": 7777,
      "ĠOnt": 7778,
      "Ġguaranteed": 7779,
      "ĠIdeas": 7780,
      "Ġhurt": 7781,
      "riculum": 7782,
      "Ġpreparing": 7783,
      "Ġlifetime": 7784,
      "Ġpit": 7785,
      "ĠThink": 7786,
      "Ġexplan": 7787,
      "Ġnarr": 7788,
      "Ġfinest": 7789,
      "ĠFac": 7790,
      "ĠEgypt": 7791,
      "Ġequivalent": 7792,
      "Ġlesson": 7793,
      "Ġemployer": 7794,
      "Ġdrawn": 7795,
      "Ġvolt": 7796,
      "Ġoblig": 7797,
      "ĠSoftware": 7798,
      "Ġfits": 7799,
      "Ġlift": 7800,
      "olid": 7801,
      "Ġconvey": 7802,
      "Ġhomeown": 7803,
      "ĠLearning": 7804,
      "ĠWas": 7805,
      "Ġrising": 7806,
      "Ġpride": 7807,
      "Ġdamaged": 7808,
      "Ġproposal": 7809,
      "aniel": 7810,
      "Is": 7811,
      "char": 7812,
      "Ġdirected": 7813,
      "ĠModern": 7814,
      "ĠDecor": 7815,
      "Ġabuse": 7816,
      "Ġgrace": 7817,
      "ĠSpain": 7818,
      "anned": 7819,
      "Ġtalks": 7820,
      "ĠVisit": 7821,
      "ĠInterest": 7822,
      "tes": 7823,
      "ĠSus": 7824,
      "ĠBang": 7825,
      "Ġfactory": 7826,
      "Ġinvolving": 7827,
      "Ġcord": 7828,
      "adow": 7829,
      "Ġsections": 7830,
      "!!!!": 7831,
      "Ġdebate": 7832,
      "ĠIra": 7833,
      "Ġgentle": 7834,
      "ĠProm": 7835,
      "Ġinteraction": 7836,
      "Ġdemonstrate": 7837,
      "Ġphotographs": 7838,
      "Ġbone": 7839,
      "Ġyours": 7840,
      "igen": 7841,
      "unicip": 7842,
      "Ġinstruction": 7843,
      "Ġdesigners": 7844,
      "Ġbeneficial": 7845,
      "Ġrepeated": 7846,
      "ials": 7847,
      "Ġcomplim": 7848,
      "Ġoccurs": 7849,
      "ESS": 7850,
      "rage": 7851,
      "Ġflexibility": 7852,
      "abetes": 7853,
      "je": 7854,
      "inity": 7855,
      "Ġrice": 7856,
      "Ġrepresentative": 7857,
      "Ġobjective": 7858,
      "Ġconsultation": 7859,
      "uis": 7860,
      "wan": 7861,
      "Ġmit": 7862,
      "lessly": 7863,
      "ĠColorado": 7864,
      "ĠDivision": 7865,
      "Ġentitled": 7866,
      "Pro": 7867,
      "Ġreact": 7868,
      "Ġstable": 7869,
      "Ġspots": 7870,
      "print": 7871,
      "iac": 7872,
      "Ġwave": 7873,
      "itis": 7874,
      "owers": 7875,
      "rad": 7876,
      "ĠNO": 7877,
      "Ġplot": 7878,
      "Ġphr": 7879,
      "Ġseed": 7880,
      "ĠAsh": 7881,
      "Ġvolunteer": 7882,
      "Ġeggs": 7883,
      "ĠSquare": 7884,
      "Ġdual": 7885,
      "ĠCli": 7886,
      "Ġmodule": 7887,
      "Ġlargely": 7888,
      "Ġdemands": 7889,
      "Ġrevolution": 7890,
      "Ġratio": 7891,
      "Ġjewel": 7892,
      "Ġpul": 7893,
      "ĠTR": 7894,
      "Ġadequ": 7895,
      "odge": 7896,
      "ĠKn": 7897,
      "Ġassociation": 7898,
      "cut": 7899,
      "Ġgap": 7900,
      "ĠLat": 7901,
      "Ġshots": 7902,
      "Ġsubjects": 7903,
      "ĠFollowing": 7904,
      "htt": 7905,
      "orous": 7906,
      "ĠEll": 7907,
      "Ġalive": 7908,
      "Ġrecre": 7909,
      "Ġpublication": 7910,
      "Ġbeds": 7911,
      "Ġresponses": 7912,
      "Ġroads": 7913,
      "Ġinitiative": 7914,
      "Ġtact": 7915,
      "eras": 7916,
      "Ġjun": 7917,
      "Ġchecked": 7918,
      "ĠCharles": 7919,
      "remony": 7920,
      "Ġhes": 7921,
      "ĠAsian": 7922,
      "Ġexplains": 7923,
      "An": 7924,
      "Ġhasn": 7925,
      "ruption": 7926,
      "Ġspark": 7927,
      "Ġrepairs": 7928,
      "Ġemails": 7929,
      "Ġappointed": 7930,
      "Ġrapidly": 7931,
      "Ġwithdraw": 7932,
      "Ġtum": 7933,
      "Ġfilling": 7934,
      "rible": 7935,
      "Ġalt": 7936,
      "coin": 7937,
      "ĠBritain": 7938,
      "Ġconvenience": 7939,
      "ĠFurthermore": 7940,
      "Ġisol": 7941,
      "ĠYe": 7942,
      "iti": 7943,
      "Ġhat": 7944,
      "ĠStat": 7945,
      "ificial": 7946,
      "Ġgreatly": 7947,
      "Ġtermin": 7948,
      "Ġcriteria": 7949,
      "Ġreligion": 7950,
      "ĠCatholic": 7951,
      "ĠRights": 7952,
      "Ġprovision": 7953,
      "including": 7954,
      "Ġdrinking": 7955,
      "Ġlayers": 7956,
      "ĠEmploy": 7957,
      "Ġtelephone": 7958,
      "redit": 7959,
      "ĠAnnual": 7960,
      "itate": 7961,
      "Ġreception": 7962,
      "Ġgate": 7963,
      "Ġneut": 7964,
      "Ġautomatic": 7965,
      "ĠPrivate": 7966,
      "ko": 7967,
      "sue": 7968,
      "zed": 7969,
      "Ġhiring": 7970,
      "iform": 7971,
      "Ġbuyer": 7972,
      "Ġutilize": 7973,
      "Ġriding": 7974,
      "ounter": 7975,
      "Ġbab": 7976,
      "ĠHold": 7977,
      "Ġsofa": 7978,
      "Ġfrequency": 7979,
      "Ġsubstantial": 7980,
      "ĠGallery": 7981,
      "bell": 7982,
      "Ðº": 7983,
      "à¸": 7984,
      "ĠEvent": 7985,
      "mg": 7986,
      "stract": 7987,
      "Ġinvestments": 7988,
      "ìĿ": 7989,
      "irts": 7990,
      "Ġedit": 7991,
      "Ġengaging": 7992,
      "Ġterrit": 7993,
      "Ġprayer": 7994,
      "DP": 7995,
      "Ġstages": 7996,
      "acher": 7997,
      "Ġentering": 7998,
      "Ġaircraft": 7999,
      "ĠPolicy": 8000,
      "Ġtile": 8001,
      "ĠBh": 8002,
      "ĠHR": 8003,
      "ĠFar": 8004,
      "Ġcann": 8005,
      "acon": 8006,
      "aze": 8007,
      "Ġstrange": 8008,
      "Ġoccurred": 8009,
      "ĠJoseph": 8010,
      "Ġtired": 8011,
      "ĠMah": 8012,
      "Ġshell": 8013,
      "ĠExam": 8014,
      "Ġdrinks": 8015,
      "Ġafraid": 8016,
      "Ġacquis": 8017,
      "ĠDom": 8018,
      "ensus": 8019,
      "Ġfalling": 8020,
      "Ġbirds": 8021,
      "Ġlegislation": 8022,
      "Ġfascin": 8023,
      "making": 8024,
      "lyn": 8025,
      "ĠWr": 8026,
      "ĠBit": 8027,
      "ĠLy": 8028,
      "Ġbuff": 8029,
      "ĠImage": 8030,
      "Ġwarranty": 8031,
      "press": 8032,
      "Ġtill": 8033,
      "ults": 8034,
      "Ġfaced": 8035,
      "ĠAdministration": 8036,
      "Ġpitch": 8037,
      "atellite": 8038,
      "Ġmood": 8039,
      "ĠBes": 8040,
      "agen": 8041,
      "Ġenroll": 8042,
      "ĠUk": 8043,
      "ĠExcell": 8044,
      "Ġimprovements": 8045,
      "iscal": 8046,
      "Ġanxiety": 8047,
      "ĠAgreement": 8048,
      "rick": 8049,
      "una": 8050,
      "ĠRen": 8051,
      "ĠProcess": 8052,
      "ĠUSB": 8053,
      "ĠStudio": 8054,
      "Ġpulled": 8055,
      "ĠKingdom": 8056,
      "AY": 8057,
      "ĠAsk": 8058,
      "Ġkeys": 8059,
      "Ġheaded": 8060,
      "Ġbills": 8061,
      "ĠOak": 8062,
      "Ġinstitution": 8063,
      "Ġgiant": 8064,
      "ĠAff": 8065,
      "Ġseeds": 8066,
      "Ġalter": 8067,
      "Ġscored": 8068,
      "Ġorganisation": 8069,
      "Ġtalked": 8070,
      "cific": 8071,
      "ĠSup": 8072,
      "Ġdeeper": 8073,
      "rooms": 8074,
      "Ġfundamental": 8075,
      "Ġstrongly": 8076,
      "ĠMedicine": 8077,
      "Ġarrival": 8078,
      "ĠIraq": 8079,
      "iana": 8080,
      "Ġmodified": 8081,
      "criptions": 8082,
      "Ġintroduce": 8083,
      "days": 8084,
      "Ġera": 8085,
      "ĠCapt": 8086,
      "ĠDan": 8087,
      "Ġtradem": 8088,
      "ĠConc": 8089,
      "Ġdowntown": 8090,
      "books": 8091,
      "Ġwise": 8092,
      "icious": 8093,
      "ĠStone": 8094,
      "Ġprize": 8095,
      "Ġworkshops": 8096,
      "Ġcouncil": 8097,
      "Ġacquire": 8098,
      "Ġaccommodation": 8099,
      "Ġpollut": 8100,
      "bro": 8101,
      "otive": 8102,
      "ĠPak": 8103,
      "Ġhaz": 8104,
      "ĠDO": 8105,
      "Ġleague": 8106,
      "Ġgeneric": 8107,
      "pire": 8108,
      "eto": 8109,
      "ĠJac": 8110,
      "Ġstudied": 8111,
      "Ġtexture": 8112,
      "Ġunderstood": 8113,
      "cal": 8114,
      "ĠDog": 8115,
      "Ġexploring": 8116,
      "Ġvert": 8117,
      "Ġlies": 8118,
      "oof": 8119,
      "ĠNatural": 8120,
      "Ġengines": 8121,
      "Ġsuspect": 8122,
      "Ġfest": 8123,
      "Ġbid": 8124,
      "ifier": 8125,
      "ĠDue": 8126,
      "ĠFact": 8127,
      "Ġpocket": 8128,
      "Ġlanguages": 8129,
      "Ġcatalog": 8130,
      "otal": 8131,
      "Ġstamp": 8132,
      "ĠFoot": 8133,
      "Ġwheels": 8134,
      "Ġdecent": 8135,
      "Ġtablet": 8136,
      "ĠHas": 8137,
      "Ġcoal": 8138,
      "ampion": 8139,
      "Ġloose": 8140,
      "Ġfarmers": 8141,
      "Ġinitially": 8142,
      "ashed": 8143,
      "ĠPop": 8144,
      "Ġsecondary": 8145,
      "Ġclock": 8146,
      "Ġbaking": 8147,
      "ĠPo": 8148,
      "ĠHun": 8149,
      "mercial": 8150,
      "Ġaims": 8151,
      "Ġsatisfied": 8152,
      "SL": 8153,
      "Ġbub": 8154,
      "isms": 8155,
      "amber": 8156,
      "ifer": 8157,
      "Ġneither": 8158,
      "ĠSafety": 8159,
      "Ġopens": 8160,
      "ĠAmong": 8161,
      "hyd": 8162,
      "Ġtwenty": 8163,
      "elly": 8164,
      "Ġfloors": 8165,
      "mble": 8166,
      "Ġuncom": 8167,
      "Ġcircle": 8168,
      "Ġbroadcast": 8169,
      "Ġorient": 8170,
      "Ġcalm": 8171,
      "%,": 8172,
      "ĠNC": 8173,
      "Ġunknown": 8174,
      "ĠSpace": 8175,
      "Ġstronger": 8176,
      "ĠStudent": 8177,
      "Ġtemperatures": 8178,
      "Ġevaluate": 8179,
      "Ġtie": 8180,
      "Ġlie": 8181,
      "ĠSav": 8182,
      "empl": 8183,
      "ĠKim": 8184,
      "ĠSteel": 8185,
      "ĠMoreover": 8186,
      "Ġfiber": 8187,
      "Ġhook": 8188,
      "ifting": 8189,
      "ccer": 8190,
      "Ġremained": 8191,
      "Ġdefine": 8192,
      "Ġcelebration": 8193,
      "Ġimplemented": 8194,
      "ĠToronto": 8195,
      "Ġexists": 8196,
      "lude": 8197,
      "Ġparticipation": 8198,
      "Ġwaters": 8199,
      "Ġspectac": 8200,
      "Ġgod": 8201,
      "ĠCopy": 8202,
      "ĠHolly": 8203,
      "Ġcomprom": 8204,
      "ĠKids": 8205,
      "Ġoperated": 8206,
      "Ġharder": 8207,
      "Ġexistence": 8208,
      "Ġdurable": 8209,
      "Ġjuice": 8210,
      "fall": 8211,
      "Ġdad": 8212,
      "ĠUr": 8213,
      "Ġviewing": 8214,
      "Ġvisitor": 8215,
      "Ġnights": 8216,
      "chester": 8217,
      "limited": 8218,
      "teen": 8219,
      "ĠKind": 8220,
      "Ġequity": 8221,
      "Ġpacked": 8222,
      "Ġillegal": 8223,
      "ĠSem": 8224,
      "ĠDar": 8225,
      "Ġcompletion": 8226,
      "Ġgranted": 8227,
      "Ġcontribution": 8228,
      "Ġliterature": 8229,
      "ĠMotor": 8230,
      "Ġdisplays": 8231,
      "Ġsen": 8232,
      "ifully": 8233,
      "ĠVi": 8234,
      "Ġacting": 8235,
      "ĠSwed": 8236,
      "Ġcoupon": 8237,
      "gments": 8238,
      "orce": 8239,
      "orith": 8240,
      "oper": 8241,
      "ĠBlu": 8242,
      "Ġphilosophy": 8243,
      "ĠChoose": 8244,
      "onda": 8245,
      "iances": 8246,
      "Ġconsent": 8247,
      "ĠAgency": 8248,
      "ĠCountry": 8249,
      "ĠProducts": 8250,
      "Con": 8251,
      "hr": 8252,
      "ashes": 8253,
      "ĠAlp": 8254,
      "Ġresid": 8255,
      "Ġpepper": 8256,
      "ĠDeath": 8257,
      "Ġformation": 8258,
      "ĠTool": 8259,
      "ĠPen": 8260,
      "Ġouts": 8261,
      "Ġclicking": 8262,
      "Ġrepresented": 8263,
      "ĠAvailable": 8264,
      "isdom": 8265,
      "ateful": 8266,
      "Ġestimate": 8267,
      "ĠAirport": 8268,
      "ĠSimply": 8269,
      ".'": 8270,
      "Ġpounds": 8271,
      "Ġlens": 8272,
      "Ġventure": 8273,
      "Ġconfiguration": 8274,
      "Ġpatch": 8275,
      "ĠSamsung": 8276,
      "Ġboot": 8277,
      "vo": 8278,
      "aya": 8279,
      "ppy": 8280,
      "Ġwanting": 8281,
      "anna": 8282,
      "vironments": 8283,
      "Ġwarning": 8284,
      "Ġhack": 8285,
      "Ġpeak": 8286,
      "Ġfaces": 8287,
      "ĠConsider": 8288,
      "ĠSale": 8289,
      "ĠOil": 8290,
      "Ġfinds": 8291,
      "Ġvisits": 8292,
      "ĠField": 8293,
      "Ġsex": 8294,
      "Ġsegment": 8295,
      "Ġcontinuous": 8296,
      "Ġtone": 8297,
      "sts": 8298,
      "ĠShare": 8299,
      "ĠiOS": 8300,
      "Ġenthusi": 8301,
      "UM": 8302,
      "Ġpp": 8303,
      "Ġpersonnel": 8304,
      "Ġproductivity": 8305,
      "Ġediting": 8306,
      "ĠArmy": 8307,
      "ĠWorking": 8308,
      "Ġregulatory": 8309,
      "ĠVillage": 8310,
      "BI": 8311,
      "bury": 8312,
      "iology": 8313,
      "Ġattending": 8314,
      "inery": 8315,
      "Ġdough": 8316,
      "ĠMs": 8317,
      "Ġpermit": 8318,
      "Ġconcert": 8319,
      "Ġtutorial": 8320,
      "Ġcompensation": 8321,
      "RL": 8322,
      "Ġchairs": 8323,
      "ĠMean": 8324,
      "Ġhoriz": 8325,
      "Ġevolution": 8326,
      "Ġrefresh": 8327,
      "ĠPhilipp": 8328,
      "ĠPrime": 8329,
      "atile": 8330,
      "ĠPsych": 8331,
      "Ġsculpt": 8332,
      "Ġfindings": 8333,
      "Ġequally": 8334,
      "Ġobjectives": 8335,
      "Ġclosing": 8336,
      "ĠConsult": 8337,
      "Ġforgot": 8338,
      "epend": 8339,
      "Ġsuffe": 8340,
      "cycle": 8341,
      "Ġadvantages": 8342,
      "Ġeliminate": 8343,
      "HA": 8344,
      "inst": 8345,
      "ĠFather": 8346,
      "Ġcock": 8347,
      "Ġbrush": 8348,
      "Ġending": 8349,
      "Ġvalve": 8350,
      "ĠOntario": 8351,
      "Ġlaser": 8352,
      "Ġcreativity": 8353,
      "Ġadopted": 8354,
      "foot": 8355,
      "oned": 8356,
      "ĠCut": 8357,
      "ĠBan": 8358,
      "Ġhel": 8359,
      "Ġsophist": 8360,
      "ML": 8361,
      "Ġlatter": 8362,
      "Ġexamination": 8363,
      "ĠMuslim": 8364,
      "Ġbedrooms": 8365,
      "Ġdecrease": 8366,
      "Ġbact": 8367,
      "adium": 8368,
      "ĠEasy": 8369,
      "ĠGuys": 8370,
      "ĠMinistry": 8371,
      "ĠTer": 8372,
      "olt": 8373,
      "ervations": 8374,
      "Ġscrew": 8375,
      "Ġdeveloper": 8376,
      "ĠLeg": 8377,
      "Ġdrain": 8378,
      "umni": 8379,
      "Ġbrilliant": 8380,
      "Ar": 8381,
      "ĠCN": 8382,
      "Ġprotocol": 8383,
      "ĠNic": 8384,
      "Ġconscious": 8385,
      "Ġsolo": 8386,
      "ĠBelow": 8387,
      "ĠGeorgia": 8388,
      "VER": 8389,
      "ji": 8390,
      "sen": 8391,
      "ĠMat": 8392,
      "Ġinjured": 8393,
      "Ġcrypt": 8394,
      "po": 8395,
      "ĠBE": 8396,
      "Ġmole": 8397,
      "sole": 8398,
      "Ġimper": 8399,
      "Ġbreaking": 8400,
      "Ġownership": 8401,
      "bage": 8402,
      "cia": 8403,
      "Ġgaming": 8404,
      "ila": 8405,
      "Ġapplies": 8406,
      "Ġspir": 8407,
      "ĠContin": 8408,
      "ĠAriz": 8409,
      "Ġfinger": 8410,
      "ĠRon": 8411,
      "Ġraising": 8412,
      "Ġboards": 8413,
      "ĠCloud": 8414,
      "ĠEverything": 8415,
      "ĠModel": 8416,
      "Ġreveal": 8417,
      "ĠLimited": 8418,
      "Ġdess": 8419,
      "lections": 8420,
      "eties": 8421,
      "Ġru": 8422,
      "ĠJenn": 8423,
      "Ġinvite": 8424,
      "ĠBell": 8425,
      "Ġpainted": 8426,
      "Ġantib": 8427,
      "Ġnursing": 8428,
      "umer": 8429,
      "Ġworship": 8430,
      "Ġham": 8431,
      "imal": 8432,
      "Ġchips": 8433,
      "Ġattitude": 8434,
      "Ġpromoting": 8435,
      "Ġdil": 8436,
      "Ġexterior": 8437,
      "Ġformula": 8438,
      "Ġemployed": 8439,
      "Ġorganisations": 8440,
      "Ġaccordance": 8441,
      "cor": 8442,
      "heast": 8443,
      "Ġfing": 8444,
      "ige": 8445,
      "Ġmedication": 8446,
      "Ġimportantly": 8447,
      "ĠPlant": 8448,
      "Ġemployers": 8449,
      "Ġreaching": 8450,
      "step": 8451,
      "ĠCand": 8452,
      "ĠCase": 8453,
      "Ġperiods": 8454,
      "ĠCorporation": 8455,
      "Ġinitiatives": 8456,
      "PM": 8457,
      "rat": 8458,
      "tail": 8459,
      "ĠDun": 8460,
      "ĠEN": 8461,
      "Ġanymore": 8462,
      "eping": 8463,
      "Ġinsights": 8464,
      "Ġplane": 8465,
      "Ġheading": 8466,
      "sized": 8467,
      "Ġspecialists": 8468,
      "Ġfocuses": 8469,
      "Ġparticipating": 8470,
      "ĠMrs": 8471,
      "sa": 8472,
      "tical": 8473,
      "onso": 8474,
      "etch": 8475,
      "ĠBul": 8476,
      "Ġjur": 8477,
      "Ġadj": 8478,
      "Ġspa": 8479,
      "Ġclaimed": 8480,
      "Ġdeeply": 8481,
      "tons": 8482,
      "Ġhub": 8483,
      "Ġstainless": 8484,
      "Ġweren": 8485,
      "ckets": 8486,
      "Ġabund": 8487,
      "Ġrefriger": 8488,
      "ĠRepair": 8489,
      "Ġtrusted": 8490,
      "Ġcolleagues": 8491,
      "uous": 8492,
      "axy": 8493,
      "Ġwondering": 8494,
      "swe": 8495,
      "ĠMother": 8496,
      "ĠEastern": 8497,
      "Ġsafely": 8498,
      "Ġrespective": 8499,
      "Ġacquired": 8500,
      "Ġmechanical": 8501,
      "Ġwatched": 8502,
      "Ġcabinet": 8503,
      "Ġtherap": 8504,
      "oli": 8505,
      "duction": 8506,
      "Ġindicated": 8507,
      "Ġcheaper": 8508,
      "ERE": 8509,
      "ĠFrancisco": 8510,
      "Ġreject": 8511,
      "Ġchampions": 8512,
      "ĠWithin": 8513,
      "ĠChem": 8514,
      "AND": 8515,
      "graduate": 8516,
      "ĠJohnson": 8517,
      "Ġsubsid": 8518,
      "Ġquotes": 8519,
      "Ġinventory": 8520,
      "rif": 8521,
      "ĠDVD": 8522,
      "ĠLic": 8523,
      "ĠShort": 8524,
      "Ġpubl": 8525,
      "aters": 8526,
      "Ġstood": 8527,
      "ĠMember": 8528,
      "ĠDaniel": 8529,
      "Ġelected": 8530,
      "RC": 8531,
      "Ġtube": 8532,
      "Ġcul": 8533,
      "nders": 8534,
      "Ġenvironments": 8535,
      "Ġrecruit": 8536,
      "Ġchildhood": 8537,
      "Ġlaid": 8538,
      "Ġmountains": 8539,
      "iour": 8540,
      "encing": 8541,
      "Ġdiversity": 8542,
      "Ġbeans": 8543,
      "ceived": 8544,
      "ĠWant": 8545,
      "ĠPu": 8546,
      "ĠRun": 8547,
      "Ġadmin": 8548,
      "earing": 8549,
      "Ġamen": 8550,
      "Ġpackaging": 8551,
      "ĠAutom": 8552,
      "Ġconsequences": 8553,
      "Ġmerely": 8554,
      "ĠTreat": 8555,
      "orses": 8556,
      "ĠStrateg": 8557,
      "ĠScotland": 8558,
      "Ġflying": 8559,
      "Ġdipl": 8560,
      "terest": 8561,
      "ludes": 8562,
      "issions": 8563,
      "Ġuniversities": 8564,
      "urities": 8565,
      "Ġstatistics": 8566,
      "Ġgender": 8567,
      "quis": 8568,
      "Ġresolve": 8569,
      "Ġflights": 8570,
      "Ġmild": 8571,
      "sell": 8572,
      "Ġvo": 8573,
      "ĠLabor": 8574,
      "nell": 8575,
      "Ġceremony": 8576,
      "Ġtalented": 8577,
      "Ġcasual": 8578,
      "Ġconclusion": 8579,
      "ĠSciences": 8580,
      "Ġalgorith": 8581,
      "Ġstability": 8582,
      "Ġintention": 8583,
      "Ġintellectual": 8584,
      "Ġcompete": 8585,
      "Ġprivile": 8586,
      "flow": 8587,
      "Ġcontributions": 8588,
      "Ġinspection": 8589,
      "Ġax": 8590,
      "uset": 8591,
      "ĠMap": 8592,
      "Ġkeyboard": 8593,
      "Ġcampaigns": 8594,
      "bourne": 8595,
      "Ġunusual": 8596,
      "CD": 8597,
      "xid": 8598,
      "Ġamongst": 8599,
      "screen": 8600,
      "Ġmath": 8601,
      "racy": 8602,
      "ĠDJ": 8603,
      "ĠGro": 8604,
      "Ġfocusing": 8605,
      "ĠJustice": 8606,
      "stein": 8607,
      "iate": 8608,
      "ĠIce": 8609,
      "ĠRub": 8610,
      "ĠLA": 8611,
      "ĠLas": 8612,
      "Ġalign": 8613,
      "ĠExpress": 8614,
      "Ġsouthern": 8615,
      "ĠBM": 8616,
      "ĠRay": 8617,
      "Ġcomplement": 8618,
      "Ġcopyright": 8619,
      "Ġdesktop": 8620,
      "ĠSecretary": 8621,
      "giving": 8622,
      "ĠCru": 8623,
      "Ġmaps": 8624,
      "ĠStation": 8625,
      "Ġbranch": 8626,
      "Ġtitles": 8627,
      "Ġdocumentation": 8628,
      "athered": 8629,
      "ĠHou": 8630,
      "Ġministry": 8631,
      "Ġmeasured": 8632,
      "Ġgraphic": 8633,
      "hot": 8634,
      "ĠTheatre": 8635,
      "ĠFox": 8636,
      "Ġcurrency": 8637,
      "gent": 8638,
      "ĠPict": 8639,
      "Ġreturning": 8640,
      "ĠPerfect": 8641,
      "Ġcher": 8642,
      "Ġbunch": 8643,
      "ĠBand": 8644,
      "Ġthemes": 8645,
      "Ġensures": 8646,
      "Ġshapes": 8647,
      "Ġsed": 8648,
      "Ġfrustr": 8649,
      "ĠPrev": 8650,
      "ĠCustomer": 8651,
      "Ġdesigning": 8652,
      "ĠCancer": 8653,
      "Ġpassionate": 8654,
      "cur": 8655,
      "Ġcompact": 8656,
      "Ġloyal": 8657,
      "ĠStan": 8658,
      "ĠRegard": 8659,
      "Ġfruits": 8660,
      "uten": 8661,
      "Ġseam": 8662,
      "Ġlocally": 8663,
      "ĠPartners": 8664,
      "Ġsorry": 8665,
      "ĠTick": 8666,
      "ĠDrag": 8667,
      "Ġalarm": 8668,
      "Ġchest": 8669,
      "ĠEstate": 8670,
      "ĠCivil": 8671,
      "ĠLi": 8672,
      "Ġranging": 8673,
      "pled": 8674,
      "ĠComb": 8675,
      "Ġstruggling": 8676,
      "Ġrubber": 8677,
      "xygen": 8678,
      "itative": 8679,
      "Ġalloc": 8680,
      "ĠRequ": 8681,
      "ĠAng": 8682,
      "Ġputs": 8683,
      "Ġexclus": 8684,
      "Ġsuffer": 8685,
      "There": 8686,
      "Ġhits": 8687,
      "Ġbroke": 8688,
      "theless": 8689,
      "Ġwashing": 8690,
      "Ġovercome": 8691,
      "ĠForce": 8692,
      "Ġrelating": 8693,
      "ĠLevel": 8694,
      "Ġmuscles": 8695,
      "letter": 8696,
      "AV": 8697,
      "vit": 8698,
      "ĠAG": 8699,
      "ador": 8700,
      "ĠNumber": 8701,
      "Ġreserved": 8702,
      "onder": 8703,
      "Ġoppon": 8704,
      "Ġmistake": 8705,
      "Ġcompatible": 8706,
      "hour": 8707,
      "Ġgene": 8708,
      "ĠMess": 8709,
      "ĠGreek": 8710,
      "asted": 8711,
      "Ġsupplied": 8712,
      "Ġfinancing": 8713,
      "Ġentrepreneurs": 8714,
      "mers": 8715,
      "Ġhanging": 8716,
      "awa": 8717,
      "Ġgolden": 8718,
      "visor": 8719,
      "TP": 8720,
      "iary": 8721,
      "oted": 8722,
      "ĠOcean": 8723,
      "Ġcurriculum": 8724,
      "vity": 8725,
      "isa": 8726,
      "adel": 8727,
      "Ġplain": 8728,
      "Ġperm": 8729,
      "Ġhearts": 8730,
      "Ġpor": 8731,
      "ĠFa": 8732,
      "Ġshoulder": 8733,
      "ĠQuick": 8734,
      "Ġcontracts": 8735,
      "Ġcameras": 8736,
      "Ġmistakes": 8737,
      "ĠCapital": 8738,
      "olis": 8739,
      "Ġsemin": 8740,
      "ĠRos": 8741,
      "Ġprofessor": 8742,
      "alysis": 8743,
      "Ġsurely": 8744,
      "Ġscenes": 8745,
      "ĠCreate": 8746,
      "Ġsought": 8747,
      "imp": 8748,
      "Ġmac": 8749,
      "Ġoverse": 8750,
      "aka": 8751,
      "Ġindoor": 8752,
      "ascular": 8753,
      "ĠALL": 8754,
      "Don": 8755,
      "FA": 8756,
      "inet": 8757,
      "style": 8758,
      "section": 8759,
      "Com": 8760,
      "Pl": 8761,
      "power": 8762,
      "sect": 8763,
      "ulator": 8764,
      "ordinary": 8765,
      "Ġrepresentatives": 8766,
      "ĠGolden": 8767,
      "ĠTa": 8768,
      "ĠViet": 8769,
      "Ġracing": 8770,
      "Ġinvesting": 8771,
      "ĠUser": 8772,
      "ĠIM": 8773,
      "ĠLind": 8774,
      "ĠLew": 8775,
      "Ġpossibilities": 8776,
      "Ġstrengthen": 8777,
      "Ġdistributed": 8778,
      "ĠArizona": 8779,
      "ih": 8780,
      "Ġought": 8781,
      "Ġcourts": 8782,
      "inois": 8783,
      "Ġconstructed": 8784,
      "ĠKorea": 8785,
      "ĠCurrently": 8786,
      "Sp": 8787,
      "Ġtours": 8788,
      "Ġaest": 8789,
      "ĠSE": 8790,
      "ĠLyn": 8791,
      "ĠCollection": 8792,
      "Ġescape": 8793,
      "Ġsees": 8794,
      "ospel": 8795,
      "Ġabilities": 8796,
      "Ġovernight": 8797,
      "Ġprescription": 8798,
      "Ġpatio": 8799,
      "Ġordinary": 8800,
      "TER": 8801,
      "lined": 8802,
      "ĠTam": 8803,
      "ifi": 8804,
      "Ġexamine": 8805,
      "Ġsmartphone": 8806,
      "Ġdirections": 8807,
      "Ġopinions": 8808,
      "Ġhoney": 8809,
      "ĠBad": 8810,
      "ĠOK": 8811,
      "izz": 8812,
      "ĠKat": 8813,
      "assion": 8814,
      "Ġproduces": 8815,
      "Ġsalad": 8816,
      "Ġstayed": 8817,
      "ĠRegist": 8818,
      "month": 8819,
      "rets": 8820,
      "eness": 8821,
      "Ġpup": 8822,
      "Ġsuite": 8823,
      "Ġanniversary": 8824,
      "Ġtargeted": 8825,
      "Ġtranslation": 8826,
      "Ġarrangements": 8827,
      "Ġrarely": 8828,
      "ima": 8829,
      "Ġtwist": 8830,
      "Ġreceipt": 8831,
      "aska": 8832,
      "burgh": 8833,
      "Ġtoilet": 8834,
      "ĠAvenue": 8835,
      "uru": 8836,
      "Ġimpression": 8837,
      "Ġdelivers": 8838,
      "ĠBridge": 8839,
      "Ġweapons": 8840,
      "wo": 8841,
      "ĠFall": 8842,
      "Ġentert": 8843,
      "Ġnetworking": 8844,
      "Ġdamages": 8845,
      "Ġengineers": 8846,
      "Ġstrike": 8847,
      "Ġfabulous": 8848,
      "Ġconcentration": 8849,
      "Ġfraud": 8850,
      "UD": 8851,
      "Ġbat": 8852,
      "Ġdecline": 8853,
      "aha": 8854,
      "Ġholes": 8855,
      "ĠHawai": 8856,
      "ĠLatin": 8857,
      "Ġoverl": 8858,
      "Ġoperational": 8859,
      "Ġaccounting": 8860,
      "Ġadministrative": 8861,
      "vals": 8862,
      "Ð¡": 8863,
      "inyl": 8864,
      "ĠEver": 8865,
      "Ġcontents": 8866,
      "Ġperformances": 8867,
      "Ġaddressed": 8868,
      "ĠĠĠĠ": 8869,
      "Ġsubsequent": 8870,
      "ey": 8871,
      "iot": 8872,
      "omic": 8873,
      "Ġprohib": 8874,
      "athan": 8875,
      "Ġsurge": 8876,
      ".-": 8877,
      "ĠSat": 8878,
      "ĠKent": 8879,
      "Ġtemplates": 8880,
      "Ġduties": 8881,
      "Ġvendors": 8882,
      "Ġphenomen": 8883,
      "ĠMD": 8884,
      "ĠOx": 8885,
      "Ġstylish": 8886,
      "Ġaccommodate": 8887,
      "CO": 8888,
      "icity": 8889,
      "ĠHost": 8890,
      "Ġgenerations": 8891,
      "Ġspecialized": 8892,
      "Ġcuts": 8893,
      "Ġemotions": 8894,
      "Ġthousand": 8895,
      "Ġft": 8896,
      "Ġfiscal": 8897,
      "ĠSher": 8898,
      "ĠNiger": 8899,
      "aza": 8900,
      "Ġgovernments": 8901,
      "Ġconnecting": 8902,
      "ĠBroad": 8903,
      "Ġburning": 8904,
      "Ġsurvive": 8905,
      "Ġfoam": 8906,
      "edge": 8907,
      "Ġconvin": 8908,
      "ĠPrior": 8909,
      "ĠStandard": 8910,
      "ĠTay": 8911,
      "ĠRod": 8912,
      "Ġgrateful": 8913,
      "ucky": 8914,
      "ĠContract": 8915,
      "Ġdifficulty": 8916,
      "hyth": 8917,
      "Ġheavily": 8918,
      "CL": 8919,
      "arat": 8920,
      "ĠSound": 8921,
      "ghan": 8922,
      "00000000": 8923,
      "ĠAnaly": 8924,
      "ĠAlways": 8925,
      "Ġfewer": 8926,
      "Ġoperator": 8927,
      "Ġsmoke": 8928,
      "Ġfluid": 8929,
      "TR": 8930,
      "bow": 8931,
      "Ġwake": 8932,
      "Ġportable": 8933,
      "Ġquantity": 8934,
      "No": 8935,
      "Ġlocks": 8936,
      "ordan": 8937,
      "Ġpractition": 8938,
      "ĠFront": 8939,
      "ĠManufact": 8940,
      "Ġdiscussions": 8941,
      "Ġoils": 8942,
      "ĠCool": 8943,
      "Ġhen": 8944,
      "ĠDI": 8945,
      "Ġseal": 8946,
      "Ġaccum": 8947,
      "Ġcontractors": 8948,
      "Ġdescribes": 8949,
      "ĠForest": 8950,
      "ðŁ": 8951,
      "Ġfounder": 8952,
      "Ġnom": 8953,
      "Ġconventional": 8954,
      "Ġvine": 8955,
      "ĠLuc": 8956,
      "ĠEmer": 8957,
      "Ġrust": 8958,
      "Ġknock": 8959,
      "Ġlosses": 8960,
      "Ġconversion": 8961,
      "Ġlandscap": 8962,
      "And": 8963,
      "imental": 8964,
      "kel": 8965,
      "employ": 8966,
      "ffective": 8967,
      "Ġsignals": 8968,
      "Ġlegit": 8969,
      "Ġenhanced": 8970,
      "Ġnutri": 8971,
      "Ġcollections": 8972,
      "Ġcopies": 8973,
      "olving": 8974,
      "Ġasp": 8975,
      "ĠRs": 8976,
      "Ġresident": 8977,
      "Ġpowers": 8978,
      "Ġalleged": 8979,
      "onsored": 8980,
      "ĠMaterial": 8981,
      "Ġaband": 8982,
      "Ġdisaster": 8983,
      "Ġvirtually": 8984,
      "Ġnorthern": 8985,
      "ĠSave": 8986,
      "aret": 8987,
      "Ġoverview": 8988,
      "Ġreply": 8989,
      "Ġblogs": 8990,
      "anguage": 8991,
      "Ġrepeat": 8992,
      "urches": 8993,
      "ouses": 8994,
      "ĠCarl": 8995,
      "Ġcontractor": 8996,
      "Ġaimed": 8997,
      "ĠRepublican": 8998,
      "Ġuncertain": 8999,
      "ĠSD": 9000,
      "that": 9001,
      "Ġincent": 9002,
      "Ġrefe": 9003,
      "ĠRom": 9004,
      "ounded": 9005,
      "Ġprime": 9006,
      "Ġbeautifully": 9007,
      "Ġglobe": 9008,
      "Ġessentially": 9009,
      "Ġwins": 9010,
      "ĠRyan": 9011,
      "emed": 9012,
      "rug": 9013,
      "ĠAlong": 9014,
      "bered": 9015,
      "wear": 9016,
      "Ġgram": 9017,
      "ĠBring": 9018,
      "ĠChapter": 9019,
      "Ġflaw": 9020,
      "Ġsteam": 9021,
      "Ġmassage": 9022,
      "Ġclubs": 9023,
      "Ġrobust": 9024,
      "ĠTempl": 9025,
      "Ġwider": 9026,
      "Ġpets": 9027,
      "Ġdiabetes": 9028,
      "Ġsalary": 9029,
      "Ġhighlights": 9030,
      "Ġgathering": 9031,
      "Ġsuddenly": 9032,
      "oom": 9033,
      "Ġï¿½": 9034,
      "Ġappl": 9035,
      "Ġreprodu": 9036,
      "Ġtournament": 9037,
      "Ġfalls": 9038,
      "Ġsituated": 9039,
      "Ġdiagnosis": 9040,
      "ĠBeautiful": 9041,
      "Ġdies": 9042,
      "Ġminister": 9043,
      "Ġhandy": 9044,
      "Ġmeaningful": 9045,
      "Ġscratch": 9046,
      "uty": 9047,
      "igs": 9048,
      "ĠOwn": 9049,
      "ĠHistor": 9050,
      "fers": 9051,
      "ped": 9052,
      "Ġcats": 9053,
      "Ġcrown": 9054,
      "isd": 9055,
      "ĠCry": 9056,
      "Ġexpanded": 9057,
      "ĠVegas": 9058,
      "Ġsear": 9059,
      "icted": 9060,
      "doors": 9061,
      "Ġattempts": 9062,
      "ĠBrother": 9063,
      "Ġefficiently": 9064,
      "ĠArchitect": 9065,
      "Ġpleasant": 9066,
      "otherapy": 9067,
      "Ġsour": 9068,
      "ĠRog": 9069,
      "ĠEth": 9070,
      "Ġdrives": 9071,
      "Ġtargets": 9072,
      "Ġremoving": 9073,
      "urious": 9074,
      "ĠCS": 9075,
      "Ġelectro": 9076,
      "cribed": 9077,
      "Ġmatching": 9078,
      "Ġconsistently": 9079,
      "Ġna": 9080,
      "ĠCreek": 9081,
      "Ġheaven": 9082,
      "abling": 9083,
      "ĠNav": 9084,
      "through": 9085,
      "Ġroots": 9086,
      "Ġarrangement": 9087,
      "ĠIndustry": 9088,
      "TE": 9089,
      "ãĥ": 9090,
      "ĠBB": 9091,
      "ĠInnov": 9092,
      "Ġsheets": 9093,
      "ILL": 9094,
      "Ġdatas": 9095,
      "Ġbanking": 9096,
      "Ġcooperation": 9097,
      "pany": 9098,
      "ĠCC": 9099,
      "ounge": 9100,
      "Ġmargin": 9101,
      "Ġexperiencing": 9102,
      "Ġassistant": 9103,
      "Ġsettlement": 9104,
      "Ġmirror": 9105,
      "Le": 9106,
      "Ġbold": 9107,
      "ĠCredit": 9108,
      "Ġlemon": 9109,
      "Ġactively": 9110,
      "Ġinstantly": 9111,
      "Ġrelation": 9112,
      "ĠInstall": 9113,
      "Ġnewspaper": 9114,
      "Ġhosts": 9115,
      "ĠType": 9116,
      "Ġfulfill": 9117,
      "Ġparameters": 9118,
      "ĠMeanwhile": 9119,
      "Ġproport": 9120,
      "ĠLarge": 9121,
      "ĠUnivers": 9122,
      "Ġlawyers": 9123,
      "ĠSenate": 9124,
      "TV": 9125,
      "rog": 9126,
      "ĠAve": 9127,
      "Ġangle": 9128,
      "ĠPoly": 9129,
      "ĠDoc": 9130,
      "Ġworkplace": 9131,
      "Ġbug": 9132,
      "Ġnose": 9133,
      "Ġgrounds": 9134,
      "Ġinstruments": 9135,
      "ĠComputer": 9136,
      "ĠColumbia": 9137,
      "ĠAction": 9138,
      "Ġimmune": 9139,
      "Ġpodcast": 9140,
      "Ġvoltage": 9141,
      "Ad": 9142,
      "ĠTit": 9143,
      "iffe": 9144,
      "Ġabroad": 9145,
      "oding": 9146,
      "Ġlob": 9147,
      "Ġcorn": 9148,
      "ATE": 9149,
      "ĠClean": 9150,
      "Ġsink": 9151,
      "star": 9152,
      "ĠGrow": 9153,
      "Ġcoaching": 9154,
      "angle": 9155,
      "ĠâĢĭ": 9156,
      "Ġprotecting": 9157,
      "Ġprinciple": 9158,
      "ĠHenry": 9159,
      "New": 9160,
      "nels": 9161,
      "arry": 9162,
      "Ġyards": 9163,
      "Ġloud": 9164,
      "Ġgrey": 9165,
      "rape": 9166,
      "ĠDNA": 9167,
      "ĠIndepend": 9168,
      "Ġreviewed": 9169,
      "Ġrepresenting": 9170,
      "Ġsurrounded": 9171,
      "Ġprincipal": 9172,
      "Ġaluminum": 9173,
      "wich": 9174,
      "Ġbands": 9175,
      "ĠDream": 9176,
      "Ġprofits": 9177,
      "Ġvariable": 9178,
      "Ġrelaxing": 9179,
      "Ġdiscounts": 9180,
      "Ġsemi": 9181,
      "Ġolive": 9182,
      "war": 9183,
      "ĠSolutions": 9184,
      "ĠPur": 9185,
      "udi": 9186,
      "Ġfinishing": 9187,
      "Ġlistings": 9188,
      "Ġopposition": 9189,
      "Ġlawn": 9190,
      "Ġemerging": 9191,
      "ĠIllinois": 9192,
      "Ġreverse": 9193,
      "abil": 9194,
      "Ġcolon": 9195,
      "Ġartwork": 9196,
      "ĠProtection": 9197,
      "Be": 9198,
      "makers": 9199,
      "leep": 9200,
      "gel": 9201,
      "Ġencounter": 9202,
      "Ġslee": 9203,
      "Ġadvertise": 9204,
      "Ġvictims": 9205,
      "Ġenforcement": 9206,
[...]
